<unk>	0
<s>	0
</s>	0
▁a	-2.54457
▁.	-2.7642
▁A	-3.27433
▁in	-3.35716
s	-3.64257
▁the	-3.72562
▁on	-3.9377
▁and	-3.99216
▁	-4.01724
▁is	-4.06501
▁man	-4.0669
ing	-4.06904
▁of	-4.12388
▁with	-4.18779
,	-4.54946
e	-4.6695
▁woman	-4.72617
▁are	-4.77752
▁to	-4.89918
▁Two	-4.98171
▁at	-5.00869
▁wearing	-5.02902
ed	-5.0394
▁people	-5.13081
▁shirt	-5.15333
▁white	-5.20704
▁young	-5.26918
▁black	-5.28085
▁girl	-5.30491
▁whil	-5.31231
▁his	-5.33985
▁blue	-5.35277
▁an	-5.37835
▁red	-5.45768
▁sitting	-5.51931
▁boy	-5.54341
▁dog	-5.56522
▁standing	-5.57788
▁men	-5.60937
▁playing	-5.63209
-	-5.65425
▁street	-5.67883
▁down	-5.7261
▁her	-5.74915
▁group	-5.75217
▁front	-5.75323
y	-5.75757
▁walking	-5.79402
▁holding	-5.83963
▁water	-5.94944
▁by	-6.02844
▁The	-6.0405
▁up	-6.11519
▁green	-6.12377
▁two	-6.12675
▁one	-6.14423
▁looking	-6.16722
▁for	-6.17855
▁child	-6.18556
▁women	-6.1929
m	-6.22294
▁large	-6.22696
▁An	-6.229
▁outside	-6.23635
▁yellow	-6.26396
▁brown	-6.27833
▁Thre	-6.28926
▁little	-6.29807
▁through	-6.32218
▁sit	-6.32437
▁person	-6.33203
▁hat	-6.35107
▁fro	-6.36822
▁other	-6.37044
▁their	-6.38748
▁ball	-6.39381
▁over	-6.43075
▁children	-6.43523
▁next	-6.46074
▁small	-6.46799
▁into	-6.47075
▁crowd	-6.52869
▁out	-6.53603
▁building	-6.54462
▁dressed	-6.54623
▁jacket	-6.5471
▁grass	-6.56292
▁snow	-6.56455
▁another	-6.5674
▁running	-6.56915
▁riding	-6.58632
▁People	-6.62165
▁some	-6.63085
▁around	-6.64218
▁orange	-6.64356
▁be	-6.64582
ly	-6.6702
▁near	-6.67439
▁field	-6.67623
▁table	-6.69009
▁Man	-6.70986
▁beach	-6.71385
▁background	-6.72111
▁pink	-6.72491
▁stands	-6.72733
▁behind	-6.74314
▁sidewalk	-6.74492
▁jumping	-6.78247
d	-6.81978
▁top	-6.83172
▁bike	-6.83257
▁camera	-6.84712
▁'	-6.85406
▁that	-6.86654
▁park	-6.88398
▁stand	-6.88507
▁looks	-6.90162
▁air	-6.90299
▁wall	-6.91509
t	-6.91664
▁player	-6.93955
▁city	-6.96096
▁off	-6.96184
▁do	-6.96227
▁hair	-6.97894
▁hand	-6.98587
▁has	-6.99396
▁dress	-6.99826
▁gray	-7.00228
▁working	-7.01685
▁guitar	-7.01842
▁it	-7.02471
▁something	-7.03021
▁picture	-7.05255
▁dogs	-7.05304
▁soccer	-7.05502
▁talking	-7.05992
▁shorts	-7.06411
older	-7.06489
▁play	-7.0683
▁blond	-7.07456
▁him	-7.07795
▁pants	-7.09623
▁Asian	-7.11382
▁walks	-7.11912
▁car	-7.12678
▁smiling	-7.13237
▁jeans	-7.13376
▁lady	-7.13923
an	-7.1407
▁along	-7.15822
▁plays	-7.16497
▁game	-7.16763
▁side	-7.16768
▁head	-7.17111
▁dark	-7.17541
▁walk	-7.18309
▁food	-7.20466
▁together	-7.20493
▁carrying	-7.20534
▁road	-7.20723
▁holds	-7.21273
▁bench	-7.21906
hair	-7.22116
▁"	-7.23574
▁face	-7.24226
▁back	-7.24695
al	-7.24822
▁long	-7.26047
er	-7.26444
▁them	-7.2653
▁boys	-7.28318
▁Four	-7.29971
▁glasses	-7.30119
▁baby	-7.30165
▁stage	-7.30297
▁male	-7.30467
▁tree	-7.31039
▁bicycle	-7.3194
▁rock	-7.339
▁tak	-7.34204
▁old	-7.34298
n	-7.35368
▁under	-7.36211
▁pool	-7.36354
ral	-7.37476
▁t	-7.37727
▁hands	-7.37945
▁who	-7.3889
▁couple	-7.38945
▁each	-7.39426
▁watching	-7.39491
▁female	-7.3976
▁Seve	-7.39846
▁area	-7.40948
shirt	-7.41052
▁ground	-7.41289
▁look	-7.42989
▁race	-7.43015
▁he	-7.43377
▁boat	-7.43697
▁dirt	-7.43827
▁baseball	-7.44002
▁mouth	-7.44007
▁day	-7.44693
▁suit	-7.45861
▁guy	-7.4676
▁three	-7.48135
▁coat	-7.48137
▁striped	-7.491
▁Wom	-7.49664
▁horse	-7.49972
▁performing	-7.50146
▁jumps	-7.50908
▁team	-7.51009
▁middle	-7.51218
▁room	-7.514
▁purple	-7.51833
▁wait	-7.52207
▁sign	-7.52598
▁across	-7.5319
▁uniform	-7.53836
▁toward	-7.54258
▁sunglasses	-7.54478
▁us	-7.54555
▁eating	-7.57008
▁watch	-7.57048
▁helmet	-7.59372
▁Young	-7.59659
▁sand	-7.60439
es	-7.60535
▁runs	-7.60917
▁football	-7.61575
▁band	-7.61844
▁microphone	-7.61888
en	-7.62503
▁train	-7.62695
▁line	-7.62746
ring	-7.63206
▁work	-7.64615
▁reading	-7.6521
▁store	-7.65543
▁or	-7.65786
▁tennis	-7.66895
▁floor	-7.66905
▁mountain	-7.67683
▁Ther	-7.68535
▁construction	-7.68698
▁On	-7.69615
▁cap	-7.69965
▁its	-7.70274
▁du	-7.7037
▁adult	-7.7044
▁watches	-7.70528
▁window	-7.70996
▁wooden	-7.7178
▁take	-7.72416
▁chair	-7.72555
▁all	-7.72696
▁toy	-7.73014
▁agains	-7.73445
▁pose	-7.7414
▁ocean	-7.74213
▁rides	-7.74306
▁enjoy	-7.74598
▁throw	-7.74903
▁players	-7.75258
▁cover	-7.7543
▁bag	-7.75654
▁about	-7.75948
▁light	-7.76019
▁basketball	-7.76547
▁dancing	-7.77245
▁try	-7.77881
▁clothing	-7.78431
▁elder	-7.78935
▁busy	-7.7908
▁past	-7.79195
▁color	-7.79567
▁go	-7.80138
▁gett	-7.80857
▁kids	-7.81084
▁lean	-7.81177
▁outdoor	-7.8125
▁climbing	-7.81286
having	-7.81648
▁swimming	-7.82214
▁restaurant	-7.82421
▁making	-7.8453
▁colorful	-7.84831
▁workers	-7.85371
▁posing	-7.85506
▁skateboard	-7.85953
▁trees	-7.86227
▁stick	-7.87583
▁inside	-7.87846
▁fence	-7.87893
▁open	-7.89315
▁tan	-7.89499
▁singing	-7.90196
▁brick	-7.90931
▁jump	-7.91107
▁high	-7.92425
▁pull	-7.9274
▁sweater	-7.93916
▁cart	-7.94075
▁market	-7.94966
▁ice	-7.95022
▁she	-7.95157
▁surround	-7.95271
▁C	-7.95284
▁ride	-7.95458
▁big	-7.96025
▁hill	-7.96797
less	-7.97142
▁beside	-7.97268
very	-7.97895
▁perform	-7.98715
▁catch	-7.99445
▁lake	-7.99564
▁motorcycle	-8.00449
▁truck	-8.00529
▁cellphone	-8.00741
▁book	-8.02427
▁wood	-8.02453
▁bright	-8.02582
▁river	-8.02709
▁track	-8.0331
▁path	-8.03747
▁bus	-8.04102
▁kitchen	-8.04254
▁vest	-8.04538
▁umbrella	-8.05851
▁body	-8.06355
▁clothes	-8.07036
▁swing	-8.07205
▁arms	-8.0721
ch	-8.07509
▁lay	-8.07524
▁backpack	-8.07703
▁beard	-8.08012
▁sever	-8.08092
▁piece	-8.08137
▁they	-8.08862
▁tank	-8.0891
▁outfit	-8.09155
▁This	-8.09183
▁Men	-8.09191
▁outdoors	-8.09217
▁night	-8.10019
▁hats	-8.10248
▁set	-8.10646
▁get	-8.11273
▁show	-8.11388
▁lot	-8.11408
▁fire	-8.12528
▁painting	-8.12963
▁sell	-8.13637
▁hard	-8.13637
▁board	-8.13666
▁trick	-8.13737
▁shopping	-8.145
▁run	-8.15126
▁stone	-8.1529
▁shop	-8.16526
▁metal	-8.16529
▁appear	-8.16682
▁above	-8.1697
▁toddler	-8.17117
▁skirt	-8.17138
▁cook	-8.17398
▁event	-8.17566
▁worker	-8.17588
▁paper	-8.18071
▁gather	-8.18255
▁arm	-8.18598
▁bar	-8.1933
▁ready	-8.19915
▁hanging	-8.20605
▁talk	-8.20743
▁house	-8.20892
▁full	-8.21021
▁drinking	-8.21804
▁four	-8.22099
▁like	-8.22183
▁uniforms	-8.22621
▁others	-8.23158
▁kick	-8.23436
▁phone	-8.23692
▁music	-8.23752
▁sleeping	-8.23807
to	-8.24645
▁right	-8.2471
▁pole	-8.25079
▁b	-8.26183
▁wave	-8.26213
▁dance	-8.26343
▁shoes	-8.26725
▁2	-8.26907
▁prepar	-8.26988
▁Five	-8.27041
▁away	-8.27091
▁rope	-8.27148
man	-8.27363
▁costume	-8.27548
▁gathered	-8.28079
▁f	-8.28189
▁number	-8.28353
▁bridge	-8.28404
▁leap	-8.28541
▁short	-8.28737
▁photo	-8.29234
hildren	-8.29403
▁push	-8.29427
▁guys	-8.29468
▁after	-8.3066
▁smiles	-8.30895
▁steps	-8.31358
▁cowboy	-8.31712
▁shirts	-8.31939
▁what	-8.32823
▁kid	-8.32906
▁gear	-8.33182
▁machine	-8.33257
▁left	-8.33434
▁police	-8.33614
▁attempt	-8.34132
▁flowers	-8.34184
▁S	-8.34318
▁whi	-8.34376
▁flag	-8.34868
▁subway	-8.35188
▁rocks	-8.35847
▁have	-8.36255
▁fountain	-8.36354
▁rider	-8.36551
▁family	-8.36612
▁jersey	-8.36976
▁sunn	-8.37236
▁display	-8.37332
▁view	-8.37586
ween	-8.38035
▁bet	-8.38079
▁African	-8.38423
▁hockey	-8.38434
r	-8.38792
▁racing	-8.38972
▁fishing	-8.39781
▁drink	-8.41795
▁sun	-8.42728
▁corner	-8.43313
▁glass	-8.43416
▁climb	-8.43639
▁public	-8.43672
on	-8.43813
▁setting	-8.43874
stic	-8.44024
▁laughing	-8.44074
▁rest	-8.44534
▁fill	-8.44569
▁forest	-8.44663
▁match	-8.44682
▁pass	-8.45029
▁sky	-8.4503
▁graffiti	-8.45224
a	-8.45515
▁sweatshirt	-8.45627
▁couch	-8.45812
▁plaid	-8.45827
▁bottle	-8.468
▁someone	-8.46817
▁pla	-8.46971
▁volleyball	-8.47198
▁stairs	-8.47407
▁instruments	-8.47593
▁tall	-8.47799
▁chairs	-8.48121
▁concrete	-8.49416
▁ramp	-8.4962
▁L	-8.50033
▁American	-8.50308
▁asian	-8.51301
▁putt	-8.5131
▁star	-8.51337
▁prepare	-8.51537
▁Some	-8.5189
▁computer	-8.52212
▁paint	-8.52335
▁scarf	-8.52733
▁slide	-8.52818
▁seated	-8.52936
▁equipment	-8.52943
▁midair	-8.52944
▁object	-8.53078
▁art	-8.53149
▁bags	-8.53316
▁listen	-8.53368
▁read	-8.53481
▁flower	-8.5353
▁edge	-8.54009
▁beautiful	-8.54218
▁hit	-8.55006
▁cigarette	-8.55078
▁cross	-8.55398
▁wear	-8.55494
oth	-8.55579
▁there	-8.5567
▁gentlem	-8.56068
▁bed	-8.56421
▁turn	-8.57318
▁close	-8.57628
ew	-8.57664
▁boots	-8.59174
▁distance	-8.59274
▁nearby	-8.59304
▁woods	-8.59375
▁rain	-8.59489
▁skateboarder	-8.59917
aged	-8.61201
▁door	-8.61285
▁apron	-8.61539
▁fish	-8.61872
▁trail	-8.61914
▁driv	-8.61975
▁shovel	-8.62001
▁fly	-8.62247
▁tie	-8.62264
▁just	-8.62751
▁Girl	-8.62929
▁net	-8.6306
▁where	-8.63151
▁ladie	-8.63426
▁biker	-8.63813
▁winter	-8.64103
▁playground	-8.64117
▁audience	-8.64339
▁mountains	-8.64571
▁eyes	-8.64609
▁fall	-8.6479
▁vehicle	-8.64812
▁instrument	-8.64819
▁tent	-8.64883
▁party	-8.64966
▁bucket	-8.65291
▁kneel	-8.65349
▁see	-8.65525
▁statue	-8.65805
▁officer	-8.65816
▁giv	-8.66085
▁crossing	-8.66238
▁lawn	-8.66736
▁fac	-8.6719
▁station	-8.67224
▁newspaper	-8.67464
▁smoking	-8.67745
▁leaves	-8.68287
▁Frisbee	-8.68941
▁painted	-8.69042
▁parade	-8.69212
▁stop	-8.69557
▁rocky	-8.70669
▁yard	-8.70736
▁bowl	-8.71285
▁cleaning	-8.7133
▁cutt	-8.71801
▁carrie	-8.71876
▁smile	-8.72164
▁beer	-8.7218
▁speak	-8.72254
ittle	-8.72334
▁structure	-8.72729
▁safety	-8.7273
▁roof	-8.73514
▁cream	-8.73521
▁hug	-8.73703
▁pictures	-8.73787
▁no	-8.74343
▁Boy	-8.75372
▁dock	-8.75611
▁shore	-8.75883
▁hold	-8.75914
▁home	-8.76087
▁makes	-8.76369
▁shoulder	-8.76736
▁box	-8.76961
▁blow	-8.77144
▁gloves	-8.77167
▁row	-8.77362
▁concert	-8.77473
▁T	-8.77599
▁works	-8.77731
st	-8.77827
▁fruit	-8.77833
▁school	-8.78051
▁sort	-8.7856
▁cup	-8.78683
▁friends	-8.79362
▁court	-8.79668
▁bikes	-8.79748
▁desk	-8.79933
▁say	-8.79971
▁bald	-8.80209
▁grill	-8.80443
▁horses	-8.80648
▁surfer	-8.80828
▁mask	-8.81238
▁overlook	-8.81541
▁martial	-8.81606
▁place	-8.81687
▁pile	-8.81814
▁business	-8.81887
▁wet	-8.81903
▁ladder	-8.8217
▁mother	-8.82171
up	-8.82283
▁flip	-8.82806
▁showing	-8.82807
▁can	-8.8306
▁use	-8.83132
▁drums	-8.83358
▁among	-8.83595
▁bull	-8.83613
▁snowboarder	-8.83929
▁bunch	-8.84173
▁practic	-8.84601
▁counter	-8.84744
▁rodeo	-8.84749
▁goggles	-8.84784
▁swim	-8.85596
▁fix	-8.85623
▁pointing	-8.85976
▁ly	-8.86343
▁skier	-8.86411
▁Group	-8.86506
▁buildings	-8.86642
▁dresses	-8.86708
▁bird	-8.86906
▁bathing	-8.86997
▁bowling	-8.87316
▁drinks	-8.87342
▁make	-8.87359
▁feet	-8.87396
▁costumes	-8.87975
▁collar	-8.88296
▁railing	-8.88341
▁cliff	-8.88595
▁electric	-8.88898
▁Someone	-8.88902
▁vendor	-8.89
▁scene	-8.89129
▁lift	-8.89238
▁time	-8.89274
▁sports	-8.89378
▁different	-8.90115
▁vests	-8.90134
▁base	-8.90149
▁gold	-8.90387
▁cut	-8.9072
▁trunk	-8.9073
fore	-8.90851
▁arts	-8.91144
▁blanket	-8.91199
▁member	-8.9197
▁surfboard	-8.9198
▁cars	-8.9201
▁onlookers	-8.92133
▁bikini	-8.92282
▁attire	-8.92283
▁wedding	-8.9261
laying	-8.92798
▁swinging	-8.92838
▁thi	-8.9305
▁suits	-8.93232
▁empty	-8.93542
ment	-8.93721
▁performer	-8.9385
▁coffee	-8.9386
▁check	-8.93981
▁leather	-8.94178
▁laptop	-8.94189
▁basket	-8.94436
▁flags	-8.94757
▁help	-8.95041
▁purse	-8.9512
ty	-8.95501
▁block	-8.95819
▁stroller	-8.95836
▁put	-8.96052
▁silver	-8.96112
▁wheel	-8.96204
▁chas	-8.96258
▁conversation	-8.96763
same	-8.97106
▁scooter	-8.97106
▁waves	-8.97207
▁cement	-8.97421
▁foreground	-8.9775
▁move	-8.97767
th	-8.9778
▁seat	-8.97793
▁shot	-8.98188
le	-8.98564
▁individual	-8.98747
▁Old	-8.98748
▁life	-8.98785
▁legs	-8.99127
▁tattoo	-8.99146
▁spectators	-8.99149
▁reach	-8.99253
▁Person	-8.99417
▁break	-8.99753
▁rail	-8.99814
▁c	-8.99871
▁float	-8.99972
▁various	-9.00431
▁lap	-9.00489
▁skateboarding	-9.00693
▁meal	-9.00784
▁items	-9.00999
▁cyclist	-9.01112
▁animal	-9.01236
ies	-9.01281
▁com	-9.01351
▁skate	-9.01397
▁competition	-9.01455
ve	-9.0207
▁artist	-9.02478
ers	-9.02493
▁writing	-9.02604
eath	-9.02843
▁balloon	-9.03014
▁ski	-9.03044
▁bicyclist	-9.04238
▁spray	-9.0459
▁parking	-9.05239
▁way	-9.05513
▁Indian	-9.05668
▁foot	-9.05692
▁students	-9.05908
▁trie	-9.06081
▁kayak	-9.06122
▁musical	-9.06553
▁screen	-9.06722
▁violin	-9.06734
▁In	-9.0728
▁relax	-9.0732
▁leg	-9.07943
▁new	-9.08176
▁alley	-9.083
ant	-9.08776
▁Six	-9.08932
▁bride	-9.09025
▁jackets	-9.09316
▁cake	-9.09347
▁good	-9.09676
▁platform	-9.10797
▁vegetables	-9.10877
▁lit	-9.10915
▁rais	-9.11114
▁outfits	-9.11231
out	-9.11356
top	-9.11665
▁splash	-9.11714
▁sings	-9.11784
▁photograph	-9.12012
▁surfing	-9.12099
▁kissing	-9.12161
▁bend	-9.12564
▁country	-9.12686
▁fighting	-9.12881
▁type	-9.12947
▁sunset	-9.13086
men	-9.13137
▁de	-9.1364
ion	-9.13644
▁wav	-9.13774
in	-9.13777
▁ledge	-9.1386
▁meat	-9.14246
▁military	-9.14246
▁clown	-9.14636
▁clear	-9.14903
▁hot	-9.15034
▁walkway	-9.15084
▁pour	-9.15448
▁gym	-9.15455
▁teenager	-9.15919
▁sport	-9.15983
▁classroom	-9.16215
▁alone	-9.16218
▁five	-9.16425
▁class	-9.16624
▁traffic	-9.16639
▁garden	-9.16881
▁diving	-9.17012
▁mirror	-9.17012
▁compet	-9.17316
▁march	-9.1743
▁signs	-9.17673
▁hang	-9.17796
▁hik	-9.18051
▁sandy	-9.1813
▁son	-9.1862
▁follow	-9.18629
▁course	-9.18662
▁upside	-9.188
▁balloons	-9.18832
▁plate	-9.18908
▁bubbles	-9.19286
▁site	-9.19389
▁fun	-9.19494
made	-9.20338
▁sea	-9.2047
▁canoe	-9.20688
▁slid	-9.20698
▁bicycles	-9.20846
▁goal	-9.20981
▁laugh	-9.21066
▁oppos	-9.21405
▁urban	-9.21961
▁hiker	-9.22261
▁desert	-9.22363
▁drive	-9.22574
▁well	-9.22823
▁headphones	-9.2284
▁leash	-9.23198
▁Construction	-9.23213
▁father	-9.23214
▁bat	-9.23229
▁cat	-9.23231
▁helping	-9.23344
▁brunette	-9.2364
▁cloth	-9.23652
▁helmets	-9.2384
▁town	-9.23958
▁Black	-9.24069
▁sandals	-9.24599
▁circle	-9.24886
▁skiing	-9.2489
▁microscope	-9.24933
▁held	-9.25145
▁teenage	-9.25258
▁golf	-9.25261
▁brightly	-9.25366
▁traditional	-9.25381
▁drum	-9.25908
▁M	-9.26241
▁stadium	-9.26243
▁barefoot	-9.26684
▁soldier	-9.26684
ic	-9.27026
▁stuff	-9.27163
▁swings	-9.27368
▁roll	-9.27436
▁seem	-9.27522
▁shallow	-9.27571
▁stream	-9.2759
▁skating	-9.27632
o	-9.27648
▁hole	-9.27844
▁musicians	-9.279
▁doorway	-9.2803
▁performance	-9.28481
▁sleep	-9.28884
▁chef	-9.28916
▁karate	-9.28916
▁marathon	-9.28917
▁multicolor	-9.28919
▁nose	-9.28967
▁photographer	-9.29075
▁church	-9.29368
▁cafe	-9.29852
▁digg	-9.29907
▁ring	-9.29919
▁Christmas	-9.3028
▁video	-9.3028
▁hugg	-9.30409
▁give	-9.30694
.	-9.31191
▁khaki	-9.31662
▁neck	-9.31855
▁eat	-9.31961
▁project	-9.32576
▁faces	-9.32577
▁gi	-9.32599
▁telescope	-9.33064
▁office	-9.33445
▁P	-9.3356
▁sculpture	-9.33717
▁brush	-9.33828
▁balance	-9.3401
ids	-9.34036
▁lights	-9.3432
▁pier	-9.34471
▁deck	-9.34492
▁chain	-9.34574
▁attached	-9.34587
▁shoulders	-9.34847
▁below	-9.34964
sleep	-9.35074
▁sled	-9.35103
▁kind	-9.35445
▁heavy	-9.3545
▁accordion	-9.35468
▁un	-9.35735
▁device	-9.35928
▁tire	-9.36103
▁dirty	-9.3615
▁straw	-9.36413
▁hoodie	-9.36431
▁makeup	-9.36438
re	-9.36618
▁mud	-9.36794
▁beige	-9.36901
▁third	-9.36908
▁friend	-9.36957
▁grocer	-9.37379
▁happy	-9.37391
▁trampoline	-9.37392
▁fight	-9.37403
▁log	-9.37441
▁runner	-9.37739
▁image	-9.37884
▁moving	-9.37907
▁part	-9.37939
▁mid	-9.38037
▁gun	-9.38375
▁pair	-9.3838
▁surf	-9.38536
▁how	-9.38886
▁crying	-9.38951
▁tracks	-9.39026
▁shade	-9.39111
▁not	-9.39227
▁wetsuit	-9.39378
▁swimsuit	-9.39379
▁pond	-9.39524
▁booth	-9.3978
▁lab	-9.39853
▁start	-9.40075
▁Chinese	-9.40396
▁produce	-9.40408
▁bo	-9.40436
▁round	-9.40442
▁drawing	-9.4047
▁load	-9.40515
▁print	-9.40551
▁himself	-9.40958
▁washing	-9.41004
sleeved	-9.4101
▁dinner	-9.41403
▁van	-9.41426
▁fair	-9.41592
▁jogging	-9.41915
i	-9.42372
▁button	-9.42497
▁square	-9.42951
▁deep	-9.43116
▁waits	-9.43887
▁checker	-9.44245
side	-9.44439
▁buy	-9.44483
▁obstacle	-9.44519
▁raft	-9.44589
▁sweeping	-9.44732
▁hoop	-9.44736
▁chase	-9.4497
▁picnic	-9.45048
or	-9.45274
▁teeth	-9.46124
▁end	-9.46222
▁string	-9.46266
▁sticks	-9.46372
▁closed	-9.46461
▁cane	-9.46498
▁umbrellas	-9.46542
▁n	-9.46661
▁pick	-9.46906
▁mat	-9.46989
▁includ	-9.47095
▁suspend	-9.47193
▁post	-9.47197
▁ear	-9.47257
▁practice	-9.47469
▁toys	-9.47705
▁lone	-9.47737
▁racket	-9.47738
▁singer	-9.47843
▁cloud	-9.47866
▁dry	-9.48222
▁athlete	-9.48283
▁tongue	-9.48283
▁windows	-9.48293
▁belt	-9.48304
▁mudd	-9.48963
▁musician	-9.48988
▁wide	-9.49385
▁swimmer	-9.49386
▁roller	-9.49475
▁coats	-9.49483
▁tile	-9.49628
▁pipe	-9.49665
▁robe	-9.49732
ial	-9.49759
▁dancers	-9.49859
▁plants	-9.49927
▁camouflage	-9.4994
▁Worker	-9.49995
▁daughter	-9.50049
▁also	-9.50499
▁center	-9.50505
▁falling	-9.50604
▁jean	-9.50704
▁festival	-9.51061
▁E	-9.51226
▁repair	-9.51248
▁These	-9.51299
▁covering	-9.51383
▁professional	-9.51626
▁hula	-9.51626
▁hammer	-9.51757
▁tricks	-9.51795
▁stunt	-9.51823
▁hose	-9.52112
l	-9.52143
▁shadow	-9.52198
▁slope	-9.5239
▁lead	-9.5264
▁crosswalk	-9.52767
▁sheet	-9.52784
▁stretch	-9.52854
▁curly	-9.52874
decorated	-9.53062
▁indoor	-9.53199
▁banner	-9.5334
▁pav	-9.53495
▁taken	-9.53593
nim	-9.53652
▁groom	-9.53919
▁wrapp	-9.53964
▁cold	-9.54314
▁low	-9.54427
▁airplane	-9.54679
▁books	-9.54796
▁blouse	-9.55085
▁tunnel	-9.55085
▁mural	-9.55101
▁eats	-9.55447
▁but	-9.55529
▁curb	-9.55673
▁backyard	-9.55677
▁wire	-9.55706
▁protecti	-9.55804
▁protest	-9.55877
▁guard	-9.56059
▁pot	-9.56103
skinn	-9.56222
▁infant	-9.56265
▁half	-9.56275
mall	-9.56295
▁hurdle	-9.56397
▁bottom	-9.56657
▁bandanna	-9.5686
▁carnival	-9.5686
▁keyboard	-9.56861
▁golden	-9.56955
▁pushe	-9.57188
▁Dog	-9.5722
▁B	-9.57373
go	-9.57398
▁flie	-9.57463
▁Lad	-9.57473
▁snowboard	-9.57557
▁points	-9.57685
▁hooded	-9.57964
▁wheelchair	-9.58061
▁catche	-9.58302
▁land	-9.58532
▁railroad	-9.58669
▁hitt	-9.58823
▁chest	-9.5883
▁I	-9.58877
▁poster	-9.58903
▁picking	-9.59377
▁lie	-9.59446
▁knee	-9.59598
▁puddle	-9.5989
▁stack	-9.59893
▁trash	-9.59894
▁overall	-9.59899
▁Guy	-9.59907
▁ben	-9.59924
▁frame	-9.59992
▁harness	-9.60127
▁nice	-9.60455
▁pavement	-9.60508
▁balcony	-9.60536
▁Child	-9.60877
▁cow	-9.60988
▁surface	-9.61129
▁beverage	-9.61135
▁polo	-9.61158
▁racer	-9.6122
▁referee	-9.61754
▁dances	-9.61835
▁speaks	-9.61882
▁finger	-9.6229
▁local	-9.62383
▁presentation	-9.62386
▁waterfall	-9.6239
▁pack	-9.62667
▁stool	-9.63016
▁New	-9.63023
▁climber	-9.6314
▁driver	-9.63471
▁gymnast	-9.63643
▁saxophone	-9.63653
▁guitarist	-9.63704
▁beam	-9.63722
ous	-9.64152
▁travel	-9.64213
▁wrestl	-9.64219
▁direction	-9.64249
▁shoe	-9.64259
▁piano	-9.64294
▁figure	-9.64294
▁gate	-9.64298
▁jumpsuit	-9.64303
▁runners	-9.6449
▁balancing	-9.64939
▁orient	-9.64939
▁call	-9.64959
▁cheerleader	-9.65029
▁touching	-9.65044
▁landscape	-9.65105
way	-9.65163
▁shooting	-9.65394
▁advertisement	-9.6559
work	-9.65627
▁crouch	-9.65683
▁laundry	-9.65684
self	-9.65983
▁living	-9.66242
ten	-9.6635
▁examin	-9.66505
▁plant	-9.66637
▁kiss	-9.66715
▁ship	-9.67182
▁dust	-9.67321
▁speed	-9.67562
▁fabric	-9.67562
▁inflatable	-9.67563
▁opening	-9.6775
▁goe	-9.67835
▁kicks	-9.6797
▁luggage	-9.68228
▁D	-9.68941
cover	-9.69163
▁sewing	-9.69164
▁clean	-9.69175
▁finish	-9.69178
▁towel	-9.69612
▁inspect	-9.69677
▁smoke	-9.69844
▁pan	-9.70131
▁necklace	-9.70256
▁rugby	-9.7026
▁dancer	-9.70469
▁plane	-9.7065
▁passe	-9.70796
▁design	-9.70941
▁tool	-9.71253
▁slides	-9.71338
▁mix	-9.71616
▁opponent	-9.7163
▁tractor	-9.7163
▁navy	-9.71642
▁pitcher	-9.71724
▁warm	-9.71808
▁mustache	-9.71971
▁scaffolding	-9.72276
▁White	-9.72325
▁motor	-9.72337
▁raise	-9.72554
by	-9.72887
▁lane	-9.73024
▁garbage	-9.73029
▁sale	-9.73164
▁opposit	-9.73219
▁juggl	-9.73644
▁staircase	-9.73728
▁teammate	-9.73734
▁grind	-9.73798
▁hay	-9.73881
▁shaving	-9.74139
▁cone	-9.74175
aught	-9.74265
▁heads	-9.74272
▁wine	-9.74427
▁goalie	-9.74447
▁fans	-9.74592
▁skis	-9.74803
▁swims	-9.75103
▁floral	-9.75165
▁feed	-9.75178
▁thing	-9.75443
▁doll	-9.75507
▁entertain	-9.75596
▁motorcyclist	-9.75871
sleeve	-9.76118
▁bubble	-9.76278
▁so	-9.76538
▁escalator	-9.76596
ither	-9.766
▁peer	-9.76645
▁multi	-9.76653
▁crew	-9.7666
▁redhead	-9.76701
▁funn	-9.7705
▁club	-9.77061
like	-9.77315
▁drummer	-9.77334
▁themselves	-9.78061
▁conversing	-9.78067
▁shak	-9.78107
▁arena	-9.78144
▁style	-9.78265
▁bik	-9.7837
▁form	-9.78564
cross	-9.78768
▁amuse	-9.78788
▁bit	-9.7898
oney	-9.79221
▁boats	-9.79339
▁York	-9.79548
▁palm	-9.79548
▁stares	-9.79561
▁pattern	-9.79638
id	-9.7989
▁reache	-9.79914
town	-9.80002
▁motorcycles	-9.80216
▁puppy	-9.803
ple	-9.80384
▁poles	-9.80567
▁examine	-9.80754
▁shin	-9.80772
age	-9.80776
▁dig	-9.80922
▁tight	-9.80963
▁podium	-9.81057
▁american	-9.81247
▁tube	-9.81334
▁adjust	-9.81807
▁lunch	-9.81819
serving	-9.8182
▁neon	-9.81821
▁trumpet	-9.81821
▁six	-9.81824
▁begin	-9.81827
▁you	-9.81947
▁saw	-9.81973
▁bread	-9.82012
▁container	-9.82309
▁steep	-9.82577
▁pillow	-9.8259
▁firefighter	-9.8259
▁model	-9.8259
▁wagon	-9.8259
▁Here	-9.82597
aked	-9.82727
▁hood	-9.82792
▁chat	-9.82829
▁papers	-9.82996
▁birds	-9.83228
▁ears	-9.83229
▁point	-9.83333
▁sleeve	-9.83348
▁racetrack	-9.83365
▁come	-9.83445
p	-9.83492
▁pedestrians	-9.83686
▁wind	-9.83964
▁barbecue	-9.83978
▁happi	-9.84146
▁acoustic	-9.84146
▁underwater	-9.84154
▁formal	-9.84181
▁pajamas	-9.84453
▁polka	-9.84934
▁snack	-9.84934
▁teacher	-9.84945
▁draw	-9.85013
▁order	-9.85431
▁motorbike	-9.85462
▁present	-9.85495
▁porch	-9.85727
▁machinery	-9.85745
▁plac	-9.86359
▁stroll	-9.86403
▁garb	-9.86522
▁dive	-9.86524
▁carpet	-9.86527
▁summer	-9.86527
▁Blond	-9.86527
▁foreign	-9.86528
▁fingers	-9.86652
▁flight	-9.86695
▁robes	-9.87106
▁athletic	-9.87334
▁candy	-9.87335
▁tub	-9.87345
▁word	-9.87413
▁heels	-9.87694
▁bucking	-9.87867
2	-9.87941
▁marketplace	-9.88148
▁headband	-9.8815
▁haircut	-9.88162
▁skater	-9.88346
▁possibl	-9.88454
▁teen	-9.88586
▁stopp	-9.88681
ting	-9.88684
▁m	-9.88737
▁pitch	-9.88909
▁H	-9.88928
▁intersection	-9.88966
▁routine	-9.88966
▁ponytail	-9.88967
▁name	-9.88967
▁BM	-9.88968
▁backwards	-9.89454
▁animals	-9.89499
color	-9.89638
▁fast	-9.89748
▁Santa	-9.89793
▁drill	-9.89794
▁observing	-9.89875
▁bear	-9.89906
▁participat	-9.90234
▁eye	-9.90352
▁boxe	-9.90497
▁hospital	-9.90626
▁hallway	-9.90631
▁sneaker	-9.90633
▁F	-9.90783
▁w	-9.90792
▁compete	-9.90829
▁operat	-9.91099
▁fur	-9.91112
▁puck	-9.91177
board	-9.91219
▁youth	-9.91227
▁cones	-9.91228
▁nap	-9.91465
S	-9.91468
▁paddling	-9.91468
▁firetruck	-9.91471
▁blocks	-9.9153
▁was	-9.91534
▁visibl	-9.91537
▁power	-9.91553
▁position	-9.91648
▁R	-9.91683
▁socks	-9.91728
▁act	-9.91766
line	-9.92047
▁maroon	-9.92314
▁softball	-9.92316
apanese	-9.92402
▁squatt	-9.92517
▁first	-9.92656
▁surrounding	-9.93098
▁leaf	-9.93169
▁narrow	-9.93169
▁bass	-9.93181
▁meeting	-9.932
▁peace	-9.93677
▁paddle	-9.93887
▁tattoos	-9.94732
▁carriage	-9.94902
▁cast	-9.94928
▁attend	-9.95226
▁map	-9.95384
down	-9.95733
▁German	-9.95778
▁cobblestone	-9.95778
▁sheep	-9.95778
▁jockey	-9.95779
▁plaza	-9.95779
▁spread	-9.95884
▁celebrating	-9.95894
▁balls	-9.95906
▁benches	-9.96093
▁tackle	-9.96138
▁tools	-9.96493
u	-9.96521
▁mound	-9.96663
museum	-9.96668
▁chew	-9.96669
▁weather	-9.9677
▁step	-9.97449
onto	-9.97497
▁speech	-9.97555
▁p	-9.98093
▁branch	-9.98278
▁direct	-9.98393
▁greyhound	-9.98456
▁patio	-9.98456
▁doctor	-9.98465
▁gravel	-9.98494
▁airborne	-9.98575
▁patient	-9.99365
▁elephant	-9.99365
▁frisbee	-9.99366
▁Olympic	-9.99366
▁space	-9.99369
▁handstand	-9.994
▁broom	-9.99431
▁homeless	-9.99484
▁airport	-9.99569
▁mall	-9.99652
if	-9.9969
▁pin	-9.99722
▁boxing	-9.99732
▁tee	-9.99829
▁snowboarding	-10.0014
▁ru	-10.0018
cuba	-10.0028
▁african	-10.0028
▁coach	-10.0028
▁Male	-10.0029
▁job	-10.003
▁gas	-10.0044
▁fenced	-10.0077
▁heart	-10.0088
▁catcher	-10.0094
born	-10.0121
▁leading	-10.0123
back	-10.0126
▁forward	-10.0129
▁stripes	-10.0184
▁taxi	-10.0214
▁lick	-10.0214
▁free	-10.0215
▁live	-10.0216
▁teal	-10.0216
▁customers	-10.0217
▁rug	-10.0221
▁rink	-10.0224
▁spinn	-10.0232
▁bank	-10.029
▁Brown	-10.0309
▁apple	-10.0309
▁courtyard	-10.0309
▁mess	-10.0309
▁sword	-10.0325
ar	-10.0384
▁fold	-10.0401
▁silhouette	-10.0404
▁cheering	-10.043
iz	-10.0486
▁cheek	-10.05
▁boardwalk	-10.05
▁suitcase	-10.0501
▁formation	-10.0501
▁mostly	-10.051
▁tray	-10.0523
▁student	-10.0529
▁pieces	-10.0535
▁welding	-10.0545
▁approach	-10.0557
▁ahead	-10.0564
▁control	-10.0569
k	-10.0577
able	-10.0584
▁college	-10.0597
▁donkey	-10.0597
▁grilling	-10.0612
▁magazine	-10.0627
▁item	-10.0634
▁bare	-10.0637
g	-10.0644
▁evening	-10.0656
▁W	-10.0656
▁toss	-10.0674
▁flipp	-10.0675
▁serve	-10.0683
ance	-10.0685
▁sail	-10.069
▁garage	-10.0695
▁rainbow	-10.0695
▁sofa	-10.0695
▁intent	-10.0698
▁mom	-10.0702
▁fisherm	-10.0706
▁tag	-10.0712
▁smokes	-10.0718
▁carry	-10.073
▁din	-10.0736
▁wrestler	-10.0747
f	-10.0784
▁entrance	-10.0794
▁crane	-10.0794
▁sink	-10.0795
▁shoot	-10.0862
▁mop	-10.0872
▁attention	-10.0894
▁carving	-10.0894
▁enter	-10.0894
▁gown	-10.0896
▁barber	-10.0896
▁song	-10.0897
▁pay	-10.0899
▁bow	-10.0901
▁bars	-10.092
▁computers	-10.0942
▁card	-10.0944
▁indoors	-10.0951
▁lamp	-10.0956
▁shar	-10.0963
ive	-10.0968
▁moto	-10.0994
▁Female	-10.0995
▁waist	-10.0995
▁liquid	-10.0997
▁action	-10.1002
▁single	-10.1021
flop	-10.1045
rs	-10.1066
▁folding	-10.1076
▁neighborhood	-10.1097
▁Larg	-10.1097
▁studio	-10.1103
▁case	-10.1113
▁baskets	-10.1116
▁bath	-10.1155
▁pet	-10.1156
▁crosse	-10.1185
▁Street	-10.12
▁backdrop	-10.12
▁pretend	-10.12
▁stove	-10.12
▁orchestra	-10.12
▁jet	-10.1203
▁punch	-10.1204
▁bite	-10.123
▁corn	-10.1248
▁gaze	-10.1277
▁crouche	-10.1289
▁record	-10.1293
▁second	-10.1305
▁hotdog	-10.1305
▁bathroom	-10.1305
▁boxer	-10.1315
▁rough	-10.1325
ite	-10.1364
▁craft	-10.1392
▁choi	-10.1394
▁fresh	-10.1397
▁bouquet	-10.141
▁converse	-10.141
▁castle	-10.1411
▁crossed	-10.1424
it	-10.1443
▁complete	-10.1446
▁cards	-10.1479
▁Crowd	-10.1516
▁creek	-10.1516
▁knife	-10.1516
▁outstretche	-10.1516
▁cardboard	-10.1517
▁kilt	-10.1517
▁pad	-10.152
▁ballet	-10.1532
el	-10.1539
▁ceiling	-10.1624
▁headscarf	-10.1624
▁cricket	-10.1624
▁library	-10.1625
▁shap	-10.1635
▁bushe	-10.1649
▁potter	-10.165
shirts	-10.165
▁knees	-10.1653
▁medic	-10.1657
rubber	-10.1669
▁knit	-10.1692
▁reflecti	-10.1701
▁blows	-10.1704
▁farm	-10.1721
▁grab	-10.1732
▁native	-10.1734
▁patch	-10.1741
ry	-10.1746
▁engag	-10.1751
▁farmer	-10.1761
'	-10.1771
▁film	-10.1779
▁pit	-10.1784
▁storefront	-10.1793
▁pigeons	-10.1805
ist	-10.1828
▁range	-10.1836
▁exhibit	-10.1842
▁unicycle	-10.1842
▁iron	-10.1842
▁main	-10.1844
▁wings	-10.1848
▁leav	-10.1853
ation	-10.1879
▁conference	-10.1953
▁pizza	-10.1954
▁transportation	-10.1954
▁dishes	-10.1961
▁dot	-10.2003
▁tin	-10.2017
▁ribbon	-10.2026
▁bounc	-10.2031
c	-10.2058
▁dish	-10.2058
▁billboard	-10.2066
▁muzzle	-10.2066
▁barrel	-10.2141
▁splashe	-10.2151
▁strange	-10.2156
▁sweat	-10.2163
▁keep	-10.2168
▁tug	-10.2174
▁ceremony	-10.2179
▁pen	-10.2182
▁tend	-10.2249
▁note	-10.2257
▁electronic	-10.2257
▁dune	-10.2258
▁walls	-10.2269
▁telephone	-10.2294
▁wading	-10.2294
▁soda	-10.2294
▁letter	-10.2303
▁tower	-10.2303
▁Lo	-10.2312
more	-10.2335
▁objects	-10.2336
▁support	-10.2371
▁chicken	-10.2378
▁village	-10.2393
ent	-10.2393
▁hall	-10.2396
ling	-10.2398
▁excited	-10.2399
▁text	-10.241
▁apply	-10.2411
▁spoon	-10.2411
▁birthday	-10.2411
▁jog	-10.242
▁guns	-10.2444
▁share	-10.2462
ping	-10.2468
luff	-10.2476
▁exercise	-10.25
cy	-10.2502
▁vegetable	-10.2503
▁ballerina	-10.2528
▁extend	-10.2528
▁jewelry	-10.2528
▁dreadlock	-10.2528
▁calm	-10.253
▁fan	-10.2565
▁parachute	-10.2587
▁contain	-10.2639
▁spot	-10.2647
▁learn	-10.2647
▁married	-10.2647
▁pret	-10.2652
▁wheels	-10.2655
▁directions	-10.2657
▁army	-10.267
▁creat	-10.2681
▁trailer	-10.2692
▁participate	-10.2704
▁photographed	-10.2732
▁observe	-10.2738
▁barrier	-10.2741
occer	-10.2763
▁advertis	-10.2766
▁Police	-10.2768
▁monitor	-10.2768
▁jungle	-10.2768
▁City	-10.2771
▁thumbs	-10.2773
▁apartment	-10.2797
▁furr	-10.2825
▁sweep	-10.2826
▁wrestle	-10.2839
▁pett	-10.2841
▁fruits	-10.2849
▁photographs	-10.2874
▁fanc	-10.2882
▁downhill	-10.289
▁employee	-10.289
▁score	-10.289
▁straight	-10.289
▁loom	-10.2891
▁dimly	-10.2893
▁terrain	-10.2895
▁hillside	-10.2898
▁caps	-10.2915
▁plates	-10.2941
la	-10.2941
h	-10.2952
▁embrace	-10.2953
▁sing	-10.2988
▁re	-10.2994
▁exit	-10.3013
▁flute	-10.3014
▁vehicles	-10.3014
▁kite	-10.3016
▁bead	-10.3019
▁far	-10.3021
▁batter	-10.3021
▁burn	-10.3051
ity	-10.3053
of	-10.3103
▁u	-10.3119
▁sprinkler	-10.3125
▁demonstrat	-10.3126
▁derby	-10.3138
▁still	-10.3138
▁braid	-10.3146
▁teaching	-10.3153
▁AT	-10.3179
▁fenc	-10.3194
▁cage	-10.3198
▁strip	-10.3201
▁cups	-10.3212
▁upward	-10.3228
▁cool	-10.3244
mobile	-10.3251
▁casual	-10.3252
▁duck	-10.3258
▁Caucasian	-10.3265
▁steel	-10.3265
▁trashcan	-10.3265
▁partially	-10.3266
▁slightly	-10.3266
▁hut	-10.3268
▁overhead	-10.3272
▁thin	-10.3306
▁involv	-10.3314
▁ethnic	-10.3334
ian	-10.3339
▁writ	-10.3349
▁passengers	-10.3352
▁customer	-10.339
▁await	-10.3393
▁expression	-10.3393
▁broken	-10.3397
▁photos	-10.3482
▁lounge	-10.3493
▁parents	-10.3508
▁most	-10.3511
▁great	-10.3523
▁calf	-10.3523
▁skateboards	-10.3534
nt	-10.3539
▁clay	-10.3554
▁securi	-10.3567
tion	-10.3571
▁doors	-10.3577
▁scar	-10.3597
▁sandwich	-10.3603
▁hike	-10.3613
▁discussing	-10.3614
▁protect	-10.3624
▁r	-10.3653
▁quick	-10.3654
▁leotard	-10.3654
▁religious	-10.3654
▁furniture	-10.3654
▁stall	-10.3654
▁sailboat	-10.3655
▁dusk	-10.3655
▁factory	-10.3656
▁checks	-10.3685
▁candles	-10.371
▁crafts	-10.372
▁bin	-10.3743
▁cla	-10.3759
▁camping	-10.3768
▁crash	-10.377
looking	-10.3772
▁gymnasium	-10.3788
▁television	-10.3788
▁bleachers	-10.3788
▁clapping	-10.3788
▁slack	-10.3789
▁chess	-10.3789
▁shake	-10.3797
▁write	-10.3808
ning	-10.3811
▁cheer	-10.383
ight	-10.385
▁strike	-10.3873
had	-10.3873
American	-10.3878
▁shower	-10.3888
▁cleans	-10.3907
▁similar	-10.391
▁fetch	-10.3923
▁cello	-10.3924
▁ropes	-10.3928
▁tourist	-10.3933
▁owner	-10.3939
lit	-10.396
▁handle	-10.3981
war	-10.3985
ery	-10.3986
▁shape	-10.402
ves	-10.4036
▁engine	-10.4043
▁tourists	-10.405
▁though	-10.4056
▁section	-10.406
▁snowshoe	-10.406
▁motion	-10.406
▁rack	-10.406
▁moment	-10.4061
▁horn	-10.4113
▁weav	-10.4122
▁operate	-10.4129
ground	-10.4146
midst	-10.4169
▁clouds	-10.4172
▁win	-10.4173
▁tea	-10.4182
ical	-10.4185
▁ornate	-10.4185
▁yog	-10.4196
▁nurse	-10.4198
▁variet	-10.4199
▁St	-10.4204
▁glove	-10.4206
▁It	-10.4213
▁tape	-10.424
▁focus	-10.4253
▁careful	-10.4268
▁gymnastics	-10.4273
▁wash	-10.4275
▁moped	-10.4288
weight	-10.4297
▁mark	-10.4312
▁flat	-10.4329
▁assist	-10.4339
▁chalk	-10.4339
▁pumpkin	-10.434
▁semi	-10.434
▁tropic	-10.434
▁logo	-10.4344
▁material	-10.4358
▁fashion	-10.4368
▁link	-10.4373
▁fak	-10.4405
▁shav	-10.4422
ndon	-10.4469
▁ma	-10.4471
ated	-10.4474
x	-10.4476
▁tuxedo	-10.4482
▁dunk	-10.4483
▁dead	-10.4483
▁seven	-10.4483
▁reflection	-10.4486
▁paddles	-10.4487
▁scen	-10.4491
▁perch	-10.4501
▁He	-10.4501
▁branche	-10.4511
ff	-10.4532
hinese	-10.4551
▁skinn	-10.4568
und	-10.4575
time	-10.4588
▁Red	-10.4599
zen	-10.4622
▁Middle	-10.4627
▁crawl	-10.4627
▁forehead	-10.4627
mpire	-10.4628
▁beanie	-10.4628
▁crown	-10.4628
▁rear	-10.4629
▁celebrate	-10.4643
▁belly	-10.4645
▁per	-10.4648
et	-10.4659
▁backs	-10.469
▁rod	-10.4694
▁gestures	-10.4696
▁hid	-10.4707
ary	-10.4714
▁touch	-10.4757
▁rollerskate	-10.4762
▁Mi	-10.4771
▁binocular	-10.4774
▁wheelbarrow	-10.4774
▁peek	-10.4774
▁odd	-10.4775
▁nighttime	-10.4778
▁treat	-10.4779
▁wheelie	-10.4782
ul	-10.4791
saw	-10.4808
▁shave	-10.4825
▁g	-10.4835
A	-10.4846
is	-10.4852
▁aim	-10.4901
▁ha	-10.4904
▁sniff	-10.4924
▁pigtail	-10.4924
▁notebook	-10.4924
▁steer	-10.4924
circular	-10.4925
▁hotel	-10.4925
▁done	-10.4926
▁shoreline	-10.4927
▁groceries	-10.4927
▁casually	-10.4939
▁huddle	-10.4942
▁aisle	-10.495
▁missing	-10.4955
▁theater	-10.4975
us	-10.4983
▁discussi	-10.4997
▁chopp	-10.5039
▁whom	-10.5067
▁canvas	-10.5075
▁nature	-10.5075
▁Elder	-10.5075
▁Tourist	-10.5075
▁tripod	-10.5075
▁stoop	-10.5076
▁grabb	-10.5076
▁pale	-10.5077
▁scenery	-10.5078
▁portrait	-10.508
▁coaster	-10.508
▁spar	-10.5082
▁O	-10.5084
▁pathway	-10.5084
▁world	-10.5085
▁We	-10.5092
▁eastern	-10.5102
▁lines	-10.5118
▁lecture	-10.5173
▁pins	-10.5209
▁own	-10.5211
▁collect	-10.5215
▁Football	-10.5229
▁descend	-10.5229
▁movie	-10.5229
▁puppies	-10.5229
▁rollerblading	-10.5229
▁hind	-10.5229
▁pedal	-10.5229
▁dough	-10.5231
▁flame	-10.5233
▁rally	-10.5235
land	-10.5252
▁venue	-10.5254
C	-10.5274
▁camel	-10.5277
▁passenger	-10.5278
▁wig	-10.5285
▁microphones	-10.5303
▁tow	-10.5304
▁kisse	-10.5335
ped	-10.5354
▁visit	-10.5385
▁gallery	-10.5385
▁juice	-10.5385
▁chocolate	-10.5385
▁human	-10.5386
▁touche	-10.5412
▁observes	-10.5414
▁rapids	-10.5426
▁feather	-10.5437
▁N	-10.5462
tory	-10.5479
▁stare	-10.5498
▁ware	-10.5525
ure	-10.553
▁love	-10.5533
▁siz	-10.5542
▁real	-10.5543
▁Couple	-10.5544
▁poodle	-10.5544
▁almost	-10.5544
▁brother	-10.5544
▁rollerskating	-10.5544
▁celebration	-10.5544
▁Wi	-10.5544
▁chalkboard	-10.5545
▁supplie	-10.5546
▁headdress	-10.5549
▁sideline	-10.5559
▁tail	-10.5563
▁Multip	-10.5588
▁turban	-10.5593
▁embrac	-10.5622
▁scrub	-10.566
style	-10.5681
ro	-10.5682
▁yarn	-10.5706
▁sunlight	-10.5707
round	-10.5708
▁arch	-10.5711
▁stripe	-10.5713
▁lo	-10.5721
▁curve	-10.5725
▁reflect	-10.5747
z	-10.5749
one	-10.5754
▁tires	-10.5772
▁rolled	-10.5782
ries	-10.5785
▁oven	-10.5792
▁protester	-10.5812
▁package	-10.5814
▁beat	-10.5854
▁meet	-10.5864
▁environment	-10.5869
▁pocket	-10.5869
▁scout	-10.5869
▁stump	-10.5869
▁descent	-10.587
▁alleyway	-10.5872
▁mini	-10.5873
▁trip	-10.589
hif	-10.5915
▁chin	-10.5952
red	-10.6006
▁rollerblade	-10.6031
▁Pedestrian	-10.6036
▁Student	-10.6036
▁modern	-10.6036
▁rifle	-10.6036
▁ticket	-10.6036
▁While	-10.6036
▁medium	-10.6036
▁handrail	-10.6037
▁admir	-10.6042
▁late	-10.6072
v	-10.6079
▁torch	-10.608
▁presents	-10.6088
ata	-10.6099
▁pause	-10.6146
▁bagpipes	-10.6157
▁st	-10.616
▁squat	-10.6169
▁speaker	-10.6177
▁mass	-10.6181
▁contest	-10.6204
arious	-10.6205
▁Mohawk	-10.6205
▁stomach	-10.6205
▁consist	-10.6205
▁briefcase	-10.6205
▁arcade	-10.6205
▁spotted	-10.6207
▁test	-10.6212
▁age	-10.6215
▁earring	-10.6221
▁industr	-10.6229
▁build	-10.6235
▁pop	-10.6244
▁masks	-10.6267
▁eggs	-10.6311
▁bib	-10.6314
▁nail	-10.6319
camera	-10.6371
▁monk	-10.6378
▁alcohol	-10.6378
▁lasso	-10.6378
▁mannequin	-10.6378
▁potato	-10.6378
▁valley	-10.6378
▁enclos	-10.6378
▁soap	-10.6378
▁monkey	-10.6378
▁decorative	-10.6378
▁indian	-10.6378
▁mechanic	-10.6379
▁butterfly	-10.638
▁mount	-10.639
▁grin	-10.6417
▁lower	-10.642
lin	-10.642
▁products	-10.645
▁gift	-10.6463
ng	-10.6469
▁pillar	-10.6472
light	-10.6488
ton	-10.6511
▁bush	-10.6515
▁cab	-10.6526
▁wild	-10.654
▁curtain	-10.6553
▁midst	-10.6558
▁underwear	-10.6558
▁trench	-10.656
▁service	-10.6562
▁crates	-10.6565
ie	-10.6575
▁hoops	-10.6582
▁strapp	-10.6589
▁tour	-10.6625
b	-10.6635
▁tricycle	-10.6642
ack	-10.667
▁spin	-10.6699
▁interacting	-10.6701
▁curl	-10.6704
▁coloring	-10.6715
▁process	-10.6731
▁McDonald	-10.6732
▁bamboo	-10.6732
▁debris	-10.6732
▁elaborate	-10.6732
▁parasail	-10.6732
▁shawl	-10.6732
▁stilt	-10.6732
▁turquoise	-10.6732
▁double	-10.6732
▁rice	-10.6732
▁assembl	-10.6732
▁split	-10.6732
▁knitt	-10.6732
▁bulldozer	-10.6732
▁nun	-10.6735
▁twirl	-10.6737
▁built	-10.6737
▁squirt	-10.6738
▁rooftop	-10.674
▁menu	-10.6757
▁pine	-10.6777
▁purchase	-10.6803
▁diver	-10.6837
and	-10.6868
▁sill	-10.6877
ockey	-10.6891
rench	-10.6913
▁gesture	-10.6913
▁milk	-10.6914
▁blood	-10.6914
▁lacrosse	-10.6914
▁monument	-10.6914
▁harvest	-10.6914
▁stairway	-10.6914
▁peak	-10.6915
dise	-10.6916
▁paw	-10.6918
▁brass	-10.692
▁garment	-10.6922
▁scale	-10.6925
▁scaffold	-10.6926
▁every	-10.6939
ish	-10.6945
ce	-10.6949
▁sledd	-10.6957
▁interesting	-10.6962
led	-10.6963
▁Y	-10.6969
ally	-10.6988
▁cycl	-10.6997
ur	-10.6999
▁angel	-10.7013
▁candle	-10.7021
▁pedestrian	-10.7022
▁camels	-10.7041
▁emerge	-10.705
▁product	-10.7065
▁me	-10.7078
▁grand	-10.708
w	-10.7085
▁poor	-10.7086
▁dad	-10.7097
▁locat	-10.7098
▁Mexic	-10.7099
▁identical	-10.7099
▁information	-10.7099
▁helicopter	-10.7099
▁Baby	-10.7099
▁mill	-10.71
country	-10.7105
▁mow	-10.7111
▁mountainside	-10.7115
▁praying	-10.7121
▁tooth	-10.7125
▁bagg	-10.7141
▁loung	-10.7141
▁stepp	-10.7147
▁bound	-10.7151
▁amount	-10.7157
▁bounce	-10.7158
ball	-10.718
front	-10.7181
▁joy	-10.7203
▁sack	-10.7216
▁vendors	-10.7224
▁Car	-10.7224
▁rolls	-10.7271
wood	-10.7276
▁merchan	-10.7277
▁interview	-10.7288
▁bathtub	-10.7288
▁chisel	-10.7288
▁contraption	-10.7288
▁highchair	-10.7288
▁shaggy	-10.7288
▁surprise	-10.7288
▁tiger	-10.7288
▁trolley	-10.7288
▁marble	-10.7288
▁scream	-10.7288
▁pig	-10.7288
▁conduct	-10.7289
▁target	-10.7289
▁beret	-10.7289
▁Runner	-10.7292
company	-10.7295
▁mower	-10.7296
▁lime	-10.7297
▁plain	-10.7298
▁sad	-10.7298
▁highway	-10.7298
where	-10.7298
▁playful	-10.7299
▁battle	-10.7333
▁axe	-10.7345
▁tackled	-10.737
▁featur	-10.7377
▁cott	-10.7429
▁co	-10.743
ges	-10.7432
house	-10.7436
▁wrap	-10.7439
▁strap	-10.7441
nel	-10.7447
est	-10.7449
rmy	-10.7465
▁boulder	-10.748
▁wife	-10.748
▁mohawk	-10.748
▁polish	-10.748
▁surgery	-10.748
▁mug	-10.748
▁flash	-10.748
▁were	-10.7483
▁Famil	-10.7485
▁homemade	-10.7487
▁story	-10.7543
▁played	-10.7545
▁fishes	-10.7545
▁approache	-10.7561
com	-10.7582
▁goat	-10.7592
▁stretche	-10.7618
▁drop	-10.764
ful	-10.7651
▁jumper	-10.7659
▁burg	-10.7672
▁Cheerleader	-10.7676
▁workshop	-10.7676
▁steam	-10.7676
▁heavily	-10.7676
▁spotlight	-10.7676
▁will	-10.7676
▁Band	-10.7677
▁location	-10.7677
▁find	-10.7678
ular	-10.7679
▁houses	-10.7686
▁ducks	-10.769
▁flow	-10.7694
omat	-10.7698
▁rag	-10.7702
▁lantern	-10.7711
dressed	-10.774
▁egg	-10.7754
▁camp	-10.7813
▁cop	-10.7845
ond	-10.7856
▁extreme	-10.7876
▁Adult	-10.7876
▁turtle	-10.7876
▁butcher	-10.7876
▁China	-10.7876
▁breakdancing	-10.7876
▁jeep	-10.7876
▁bracelet	-10.7876
▁raincoat	-10.7876
▁construct	-10.7878
▁snowsuit	-10.7882
▁wade	-10.7884
▁snowball	-10.7891
▁v	-10.7893
brush	-10.7896
▁marker	-10.7902
ir	-10.7905
ence	-10.7947
▁j	-10.7961
▁bra	-10.7983
▁chop	-10.8001
ital	-10.8014
▁bricks	-10.8051
▁coast	-10.8073
▁rust	-10.8076
▁autumn	-10.8078
▁Firefighter	-10.808
▁banjo	-10.808
▁cheese	-10.808
▁graduati	-10.808
▁plank	-10.808
▁breath	-10.8081
▁handbag	-10.8081
▁aerial	-10.8082
▁shepherd	-10.8082
▁label	-10.8085
▁dragg	-10.8087
aseball	-10.8091
scot	-10.8101
▁Shirt	-10.8105
▁scal	-10.8109
▁interact	-10.8116
▁padd	-10.8116
▁ask	-10.8119
▁thr	-10.812
▁tired	-10.8128
▁gaz	-10.8134
▁studying	-10.8136
▁ex	-10.8141
▁labora	-10.8144
▁stocking	-10.8158
▁spike	-10.8176
tuck	-10.8188
▁we	-10.8207
▁Lot	-10.8213
▁guide	-10.8222
▁pirate	-10.8227
▁splashed	-10.8251
▁sharp	-10.8287
▁vend	-10.8288
▁Claus	-10.8288
▁kimono	-10.8288
▁miniature	-10.8288
▁shopper	-10.8288
▁tournament	-10.8289
▁bystander	-10.8289
▁intense	-10.8289
▁driveway	-10.8292
▁cable	-10.8293
▁retriever	-10.8296
▁war	-10.8297
▁task	-10.8298
▁wh	-10.8301
▁drap	-10.832
▁vacuum	-10.8326
▁colorfully	-10.8334
▁brushe	-10.8347
▁legging	-10.8367
▁attractive	-10.8371
een	-10.8378
▁blankets	-10.839
▁gestur	-10.8401
▁planting	-10.8419
▁hook	-10.8436
▁lips	-10.8436
▁kayaker	-10.8438
▁news	-10.8445
mon	-10.8446
▁laundr	-10.8469
▁defend	-10.8475
▁tackl	-10.8497
▁Cyclist	-10.8501
▁content	-10.8501
▁quiet	-10.8501
▁scoop	-10.8501
▁Orient	-10.8501
▁Musician	-10.8501
▁blurry	-10.8501
▁attack	-10.8501
▁injur	-10.8501
▁warehouse	-10.8501
▁receiv	-10.8507
▁awning	-10.8513
▁science	-10.8515
▁handling	-10.8519
▁too	-10.854
▁li	-10.8588
▁Asia	-10.8595
▁i	-10.8597
ll	-10.8636
ren	-10.8648
▁shad	-10.865
▁bab	-10.8692
▁columns	-10.8698
▁unusual	-10.8705
ger	-10.8718
▁Hawaii	-10.8718
▁experiment	-10.8718
▁flannel	-10.8718
▁official	-10.8718
▁socializing	-10.8719
▁Blue	-10.8719
▁eyeglass	-10.8719
▁dumpster	-10.8719
▁toilet	-10.8719
▁pilot	-10.8719
▁tarp	-10.8719
rbor	-10.8719
▁tablecloth	-10.8721
▁discuss	-10.8732
▁belongings	-10.8733
▁year	-10.8741
▁fireworks	-10.8751
▁panel	-10.8753
▁disc	-10.8755
▁sa	-10.876
▁washe	-10.8774
▁merr	-10.8804
ky	-10.8808
▁got	-10.8813
▁containers	-10.8814
▁Fire	-10.8815
▁sleeves	-10.8818
▁skills	-10.8837
▁rush	-10.8859
▁create	-10.8864
▁drag	-10.8883
▁separate	-10.89
▁rubb	-10.8927
bank	-10.8931
▁applie	-10.8941
▁auditorium	-10.8941
▁caucasi	-10.8941
▁kiosk	-10.8941
▁meadow	-10.8941
▁reception	-10.8941
▁supermarket	-10.8941
▁festive	-10.8941
▁conductor	-10.8942
▁blazer	-10.8942
▁suburb	-10.8944
▁projector	-10.8944
▁instructor	-10.8946
aking	-10.8955
▁fry	-10.896
ct	-10.8961
wear	-10.8981
immed	-10.8985
▁carve	-10.8993
hose	-10.8997
▁canal	-10.8998
▁crayons	-10.9029
▁clearing	-10.903
▁decorations	-10.9036
▁divers	-10.9054
▁covers	-10.9057
rd	-10.9078
▁Du	-10.9081
W	-10.9103
▁smooth	-10.9134
▁spark	-10.9153
▁shield	-10.9156
▁trim	-10.9159
ways	-10.9167
▁Shepherd	-10.9168
▁explain	-10.9168
▁scissor	-10.9168
▁terminal	-10.9168
▁return	-10.9168
▁bridesmaid	-10.9168
▁staff	-10.9168
▁sound	-10.9169
▁bedroom	-10.9169
▁need	-10.917
▁cherry	-10.9172
▁stay	-10.9174
▁hop	-10.9175
▁bundled	-10.9183
▁clock	-10.9183
▁lock	-10.9187
ter	-10.9188
▁level	-10.9196
▁dri	-10.9209
▁passers	-10.9247
seat	-10.9248
▁pots	-10.9273
Eastern	-10.9323
▁cape	-10.9334
lic	-10.9353
▁stones	-10.9372
▁crack	-10.9376
▁bundle	-10.9399
zone	-10.94
▁School	-10.9401
▁activity	-10.9401
▁citizen	-10.9401
▁competitor	-10.9401
▁ingredient	-10.9401
▁serious	-10.9401
▁skull	-10.9401
▁South	-10.9401
▁illuminat	-10.9401
▁olive	-10.9401
▁horizon	-10.9401
▁foliage	-10.9401
▁else	-10.9401
▁British	-10.9401
▁unload	-10.9401
▁thick	-10.9402
▁sprint	-10.9402
▁Skateboarder	-10.9403
▁lion	-10.9404
▁baton	-10.9413
▁stain	-10.9416
▁ridd	-10.9435
▁burie	-10.9438
wheel	-10.9441
icy	-10.9458
▁Bo	-10.9463
▁yelling	-10.9469
▁rings	-10.9479
sh	-10.949
▁golfer	-10.9491
▁di	-10.9495
▁bottoms	-10.9501
▁bring	-10.9559
partment	-10.9561
▁pre	-10.9596
▁amid	-10.9621
▁inflat	-10.9638
▁cigar	-10.9639
▁Spectator	-10.9639
▁aqua	-10.9639
▁champagne	-10.9639
▁natural	-10.9639
▁rabbit	-10.9639
▁rickshaw	-10.9639
▁hydrant	-10.9639
▁lens	-10.9639
▁blurred	-10.9639
▁campfire	-10.9639
▁ATM	-10.9639
▁whistle	-10.9639
▁series	-10.9639
▁haul	-10.9639
▁browsing	-10.964
▁Se	-10.964
▁fellow	-10.9641
▁lining	-10.9643
▁For	-10.966
ied	-10.9666
ami	-10.9682
quad	-10.9684
▁launch	-10.9687
▁skies	-10.9693
ill	-10.9697
shap	-10.9697
pass	-10.97
▁foam	-10.9713
hand	-10.9714
mp	-10.9747
▁characters	-10.982
▁search	-10.9822
ded	-10.9844
▁tutu	-10.9861
▁signal	-10.9865
▁crate	-10.9866
▁dump	-10.9868
ile	-10.987
shelf	-10.988
▁than	-10.9882
▁Hispanic	-10.9883
▁aquarium	-10.9883
▁avoid	-10.9883
▁coconut	-10.9883
▁pencil	-10.9883
▁razor	-10.9883
▁senior	-10.9883
▁victory	-10.9883
▁limb	-10.9883
▁Canadian	-10.9883
E	-10.9884
▁sailor	-10.9885
▁want	-10.9886
▁adorn	-10.9887
▁transit	-10.9887
▁organiz	-10.9894
▁upper	-10.9902
P	-10.9909
▁cell	-10.9914
sticks	-10.9921
▁cleaner	-10.9929
▁diner	-10.9932
▁acrobatic	-10.9959
▁accompani	-10.9962
▁Dogs	-10.9982
▁focused	-11.0003
▁h	-11.0046
wn	-11.0048
▁repairs	-11.0049
▁magazines	-11.0056
▁bananas	-11.0103
▁zip	-11.0104
dress	-11.0109
▁receive	-11.0114
ck	-11.0123
▁christmas	-11.0133
▁sausage	-11.0133
▁symbol	-11.0133
▁temple	-11.0133
▁bmx	-11.0133
▁Native	-11.0133
▁Smil	-11.0133
▁bronco	-11.0133
▁transport	-11.0133
▁earphones	-11.0133
▁assort	-11.0133
▁flock	-11.0133
eval	-11.0133
▁Green	-11.0133
▁sari	-11.0134
ia	-11.014
▁stirr	-11.0143
▁cows	-11.0193
▁buffe	-11.0197
piece	-11.0197
▁include	-11.023
▁clap	-11.0236
▁guards	-11.0246
lush	-11.0269
▁rak	-11.027
ner	-11.0295
▁tags	-11.0305
▁communi	-11.0311
▁judge	-11.0313
▁roses	-11.0316
gg	-11.0329
ain	-11.0343
▁engage	-11.0346
▁comfort	-11.0359
▁leas	-11.0361
lo	-11.0361
▁walker	-11.0363
▁thumb	-11.0386
▁clutch	-11.0389
▁Square	-11.0389
▁dinosaur	-11.0389
▁hamburger	-11.0389
▁morning	-11.0389
▁scientist	-11.0389
▁snake	-11.0389
▁commerc	-11.0389
▁casino	-11.0389
▁arrow	-11.0389
▁quarterback	-11.0389
▁soft	-11.0389
cular	-11.0389
▁elevator	-11.039
▁Mother	-11.039
▁plow	-11.039
▁bale	-11.0392
▁jar	-11.0393
▁European	-11.0393
▁afternoon	-11.0396
▁sponsor	-11.0396
▁tv	-11.0399
▁paperwork	-11.04
▁antique	-11.0404
set	-11.0407
▁buck	-11.041
ri	-11.0415
▁sh	-11.0425
▁mic	-11.0441
▁waiter	-11.0471
know	-11.0478
▁deliver	-11.0482
ha	-11.0494
▁sat	-11.0543
▁wheeler	-11.0608
▁photographers	-11.0616
▁tell	-11.0639
▁join	-11.0641
▁stir	-11.0641
▁maneuver	-11.0647
ident	-11.0647
▁surg	-11.0652
▁ascend	-11.0652
▁harmonica	-11.0652
▁holiday	-11.0652
▁tribal	-11.0652
▁innertube	-11.0652
▁establishment	-11.0652
▁pump	-11.0652
▁unhappy	-11.0653
scape	-11.0654
▁eight	-11.0655
▁bay	-11.0663
▁skin	-11.0667
laid	-11.0673
▁defender	-11.0684
▁freshly	-11.0685
▁mountaintop	-11.0685
▁propp	-11.069
▁cooler	-11.0695
▁dryer	-11.0699
▁crops	-11.0736
▁mo	-11.0739
▁canop	-11.0744
▁acc	-11.0757
▁deer	-11.0759
▁waterskiing	-11.0766
▁remov	-11.0786
▁struggle	-11.0793
ki	-11.08
▁hills	-11.0803
▁rake	-11.0808
ol	-11.087
▁swan	-11.0879
▁viewer	-11.088
ard	-11.089
▁India	-11.0916
haps	-11.0921
▁connect	-11.0922
▁fatigue	-11.0922
▁puppet	-11.0922
▁racquet	-11.0922
▁system	-11.0922
▁possession	-11.0922
▁Basketball	-11.0922
▁waitress	-11.0922
▁numer	-11.0923
▁grasp	-11.0923
▁companion	-11.0923
▁portable	-11.0923
▁barricade	-11.0924
SA	-11.0925
▁tuba	-11.093
▁historic	-11.0942
▁medi	-11.0951
▁port	-11.0959
day	-11.0974
▁booths	-11.0988
▁arrang	-11.1005
▁complet	-11.1012
▁poke	-11.1012
▁strik	-11.1024
▁fit	-11.1026
▁passed	-11.107
▁congregat	-11.108
▁seagulls	-11.1099
▁fighter	-11.1104
▁press	-11.1114
▁Ch	-11.1117
▁painter	-11.1144
▁statues	-11.1161
no	-11.1168
op	-11.1175
▁suck	-11.1179
▁competitive	-11.1187
▁deli	-11.1194
▁apart	-11.1199
▁Muslim	-11.12
▁Soldier	-11.12
▁clarinet	-11.12
▁depict	-11.12
▁participant	-11.12
▁riot	-11.12
▁wilderness	-11.12
▁guest	-11.12
▁Dark	-11.12
▁incline	-11.12
▁mailbox	-11.12
▁found	-11.12
▁pacifier	-11.12
▁stance	-11.1201
▁rowboat	-11.1201
▁Look	-11.1201
▁fell	-11.1201
▁much	-11.1201
▁vegeta	-11.1202
▁dragon	-11.1203
▁Protester	-11.1204
▁twist	-11.1206
▁organ	-11.1226
▁bunn	-11.1228
▁workout	-11.1236
▁bartend	-11.124
bo	-11.1251
co	-11.1259
▁marking	-11.1264
▁capture	-11.1268
▁Be	-11.1278
▁shrub	-11.1294
cause	-11.13
club	-11.1303
white	-11.1304
green	-11.1304
cart	-11.1312
▁reclin	-11.1314
▁ten	-11.1317
O	-11.1351
▁even	-11.1358
▁bicycl	-11.136
▁chips	-11.1366
il	-11.1388
▁rescue	-11.1396
▁hear	-11.1405
▁shine	-11.1429
ellow	-11.1443
▁hips	-11.1444
▁curv	-11.1454
▁juggle	-11.1469
▁exercis	-11.1473
▁classic	-11.1475
ok	-11.1486
▁asphalt	-11.1486
▁bookstore	-11.1486
▁clutter	-11.1486
▁knock	-11.1486
▁progress	-11.1486
▁treadmill	-11.1486
▁wield	-11.1486
▁fedora	-11.1486
▁Close	-11.1486
▁Bicyclist	-11.1486
▁flood	-11.1486
▁reddish	-11.1486
▁pony	-11.1486
▁hunche	-11.1486
▁puzzle	-11.1486
▁Time	-11.1486
▁turkey	-11.1486
▁pant	-11.1487
▁last	-11.1487
▁cave	-11.1488
▁fat	-11.1488
▁archway	-11.1488
▁Biker	-11.1492
▁goatee	-11.1509
▁column	-11.1513
▁fist	-11.1513
▁sample	-11.1513
▁warmly	-11.154
▁con	-11.1559
▁wakeboard	-11.1595
neck	-11.1597
fill	-11.1598
pard	-11.1602
▁file	-11.161
ness	-11.162
▁stor	-11.163
um	-11.163
▁relaxe	-11.1631
▁De	-11.1635
head	-11.164
ily	-11.1651
ther	-11.1658
▁shoots	-11.1669
▁feathers	-11.1682
▁demonstrate	-11.1691
▁pok	-11.1716
▁toast	-11.1748
▁mus	-11.1754
▁unique	-11.1766
▁America	-11.1777
▁Cowboy	-11.178
▁cafeteria	-11.178
▁caution	-11.178
▁shelter	-11.178
▁substance	-11.178
▁vintage	-11.178
▁visor	-11.178
▁convention	-11.178
▁Number	-11.178
▁saddle	-11.178
▁automobile	-11.178
▁metro	-11.178
▁jogger	-11.1781
▁social	-11.1781
▁partner	-11.1781
▁Bald	-11.1782
enga	-11.1782
▁picket	-11.1783
▁spring	-11.1783
▁cries	-11.1783
▁shelv	-11.1783
▁rise	-11.1783
▁strum	-11.1784
▁cruise	-11.1794
▁litter	-11.1797
▁sash	-11.1812
▁watermelon	-11.1814
▁banana	-11.1815
ade	-11.182
▁sling	-11.1825
▁whole	-11.1838
▁pro	-11.1849
ara	-11.1865
▁pie	-11.1883
stand	-11.1883
▁ribbons	-11.1885
▁su	-11.1919
D	-11.193
▁pillars	-11.1933
▁offering	-11.1938
T	-11.1939
▁spik	-11.1945
abl	-11.1947
▁tips	-11.1948
▁dribble	-11.1951
▁change	-11.1957
gle	-11.1985
▁weed	-11.2008
▁concentrat	-11.2015
▁attach	-11.2018
pants	-11.2038
▁cheerlead	-11.2041
▁sip	-11.2072
azz	-11.2074
▁mur	-11.2079
▁flaming	-11.2079
▁Surfer	-11.2083
▁Toddler	-11.2083
▁boogie	-11.2083
▁hammock	-11.2083
▁obscur	-11.2083
▁proud	-11.2083
▁pyramid	-11.2083
▁question	-11.2083
▁uphill	-11.2083
▁weapon	-11.2083
▁badminton	-11.2083
▁pancake	-11.2083
▁NY	-11.2083
▁State	-11.2083
▁fireplace	-11.2083
▁Snowboarder	-11.2084
▁cattle	-11.2084
▁bodysuit	-11.2085
▁twin	-11.2087
pstick	-11.2094
tish	-11.21
▁bakery	-11.2101
I	-11.2107
▁carrier	-11.2111
▁special	-11.2118
▁fog	-11.2121
▁sipp	-11.2132
▁early	-11.2156
▁hip	-11.2163
▁guid	-11.2182
▁elevat	-11.219
▁newly	-11.2192
M	-11.2203
jump	-11.2213
▁hide	-11.2232
alon	-11.2233
▁wip	-11.224
erous	-11.2248
lmo	-11.2258
ung	-11.2272
▁stunts	-11.2286
▁super	-11.2292
▁beers	-11.2301
▁Da	-11.2304
size	-11.2308
▁swords	-11.2336
▁mixed	-11.2386
▁slic	-11.2394
▁Customer	-11.2396
▁dessert	-11.2396
▁dolphin	-11.2396
▁elbow	-11.2396
▁excitement	-11.2396
▁powder	-11.2396
▁weird	-11.2396
▁ornament	-11.2396
▁Spanish	-11.2396
▁slab	-11.2396
▁surgeon	-11.2396
▁buggy	-11.2396
homa	-11.2396
▁harp	-11.2396
▁Nike	-11.2396
▁bungee	-11.2396
▁wool	-11.2396
▁Rock	-11.2396
▁adolescent	-11.2396
▁collection	-11.2398
ohn	-11.2398
▁facility	-11.2398
▁trap	-11.2399
▁trophy	-11.2403
▁soar	-11.2405
▁sight	-11.2407
▁jug	-11.2407
▁sparkler	-11.2419
lance	-11.2434
▁roadside	-11.2441
▁roadway	-11.2445
ore	-11.2445
▁ruins	-11.2447
▁hung	-11.2452
▁stair	-11.2453
▁cookie	-11.2454
▁scratch	-11.2459
▁retrieve	-11.2467
▁tap	-11.2467
▁climbers	-11.2469
wish	-11.2483
▁emerg	-11.2505
im	-11.2513
legg	-11.2533
B	-11.2535
▁bell	-11.2535
finish	-11.2536
cast	-11.2544
▁nails	-11.2568
▁size	-11.2596
ke	-11.2611
pong	-11.2624
other	-11.2645
▁vacuuming	-11.2659
cla	-11.266
▁Gra	-11.2685
ator	-11.2704
son	-11.2712
▁recent	-11.2718
▁Friend	-11.2718
▁Walmart	-11.2718
▁accept	-11.2718
▁carousel	-11.2718
▁dandelion	-11.2718
▁easel	-11.2718
▁megaphone	-11.2718
▁piggyback	-11.2718
▁register	-11.2718
▁spider	-11.2718
▁Sooner	-11.2718
▁wonder	-11.2718
▁slam	-11.2718
▁lemon	-11.2718
▁mime	-11.2718
▁circuit	-11.2718
▁radio	-11.2718
▁canyon	-11.2718
▁complex	-11.2718
▁vary	-11.2719
▁soil	-11.2719
▁mule	-11.2719
▁terrier	-11.2719
▁wicke	-11.2719
▁cash	-11.272
▁sunhat	-11.272
▁bored	-11.2721
▁sponge	-11.2722
▁Num	-11.2723
ride	-11.2723
▁soup	-11.2725
▁lob	-11.2727
▁admire	-11.2729
▁headset	-11.273
ubb	-11.2743
▁upset	-11.2748
▁washer	-11.2773
▁She	-11.2773
▁purses	-11.2778
▁sister	-11.278
▁barbecu	-11.2789
▁leader	-11.2793
▁mist	-11.2795
▁may	-11.2796
▁expos	-11.2796
▁length	-11.2807
oe	-11.2823
ti	-11.283
tter	-11.2843
gear	-11.287
▁vault	-11.2874
▁feature	-11.2894
car	-11.2918
▁cycle	-11.2926
▁my	-11.2947
right	-11.295
▁Co	-11.2987
fully	-11.2996
den	-11.3005
▁dis	-11.3042
▁Coca	-11.3051
▁activities	-11.3051
▁blossom	-11.3051
▁newlywed	-11.3051
▁skyscraper	-11.3051
▁Scot	-11.3051
▁politic	-11.3051
▁vibrant	-11.3051
▁diaper	-11.3051
▁kickboxing	-11.3051
▁veil	-11.3051
▁abandon	-11.3051
▁foggy	-11.3052
▁marsh	-11.3052
▁major	-11.3052
▁key	-11.3052
▁flour	-11.3052
▁utilit	-11.3052
▁noodle	-11.3052
▁sketch	-11.3052
▁attentive	-11.3052
▁peach	-11.3053
▁torn	-11.3053
▁synchroniz	-11.3054
▁xylophone	-11.3054
▁worn	-11.3054
▁tracksuit	-11.3054
▁attendant	-11.3056
▁tomatoes	-11.3057
▁ox	-11.3064
ny	-11.3064
▁clothesline	-11.3065
▁Bar	-11.3065
▁wander	-11.3066
▁height	-11.3067
▁Player	-11.3067
▁jack	-11.3074
▁frown	-11.3075
pen	-11.3077
▁must	-11.3081
▁depart	-11.3082
▁confe	-11.3099
mbu	-11.3128
air	-11.3131
tted	-11.3143
▁sculpting	-11.3145
ip	-11.3155
▁navigate	-11.3157
▁yo	-11.3158
▁camps	-11.3161
▁ca	-11.3167
▁parent	-11.318
▁lands	-11.3184
oven	-11.3184
corn	-11.3205
▁award	-11.3213
point	-11.3213
▁measur	-11.3249
▁dart	-11.3263
ot	-11.3294
▁ch	-11.33
▁Mar	-11.3324
▁War	-11.3334
▁horns	-11.3369
▁secur	-11.3395
▁border	-11.3396
▁Park	-11.3396
▁Spider	-11.3396
▁breakfast	-11.3396
▁craz	-11.3396
▁league	-11.3396
▁sunbathing	-11.3396
▁yawning	-11.3396
▁period	-11.3396
▁robot	-11.3396
▁folk	-11.3396
▁Bull	-11.3396
▁smell	-11.3396
▁maybe	-11.3396
▁Lego	-11.3396
▁blindfold	-11.3396
▁oil	-11.3396
▁review	-11.3396
▁cupcake	-11.3397
▁cabinet	-11.3397
▁coverall	-11.3398
▁napping	-11.3398
▁bowtie	-11.3398
▁Nin	-11.3399
▁prayer	-11.3399
▁parallel	-11.34
▁violinist	-11.34
▁Dancer	-11.3402
ould	-11.3405
▁rollerblader	-11.3406
▁message	-11.3415
▁dozen	-11.3422
sus	-11.3435
▁sprinklers	-11.3436
tti	-11.346
▁glid	-11.346
capped	-11.3472
▁bang	-11.348
▁mous	-11.3482
▁character	-11.3486
N	-11.3487
▁offer	-11.3522
▁Do	-11.3524
ab	-11.353
▁angry	-11.3533
▁peaceful	-11.3541
▁sacks	-11.3542
▁barn	-11.3548
food	-11.3571
five	-11.3602
eep	-11.3602
▁purchas	-11.3611
pe	-11.3633
hat	-11.3644
▁retriev	-11.3659
▁stre	-11.3663
▁folder	-11.3669
▁captur	-11.367
ged	-11.3677
▁nearly	-11.372
F	-11.374
▁vertical	-11.374
▁bake	-11.3748
▁select	-11.3752
▁install	-11.3753
niversity	-11.3753
▁Brunette	-11.3753
▁ancient	-11.3753
▁caricature	-11.3753
▁roast	-11.3753
▁skydiving	-11.3753
▁smock	-11.3753
▁resident	-11.3753
▁Texa	-11.3754
▁crab	-11.3754
▁tilt	-11.3754
▁hoist	-11.3754
▁medal	-11.3754
▁pressure	-11.3754
▁broad	-11.3754
▁grain	-11.3754
▁current	-11.3754
▁Food	-11.3755
▁backstroke	-11.3755
▁sex	-11.3756
ft	-11.3757
▁Franc	-11.3757
▁Swimmer	-11.3757
▁seesaw	-11.3758
igan	-11.3759
▁overcoat	-11.376
▁slice	-11.3761
▁preparation	-11.3762
▁Teenager	-11.3762
▁earth	-11.3763
▁goof	-11.3766
▁You	-11.378
▁pinn	-11.3795
▁handlebars	-11.3808
▁angle	-11.3813
▁tote	-11.3819
▁nicely	-11.383
▁dropping	-11.3834
▁wrist	-11.3843
▁picker	-11.3843
▁lip	-11.3852
▁rose	-11.3856
▁bagpipe	-11.386
▁decorat	-11.3863
▁trimming	-11.3866
▁gardening	-11.3873
▁motorbikes	-11.3876
▁demonstrati	-11.3898
▁ta	-11.3903
do	-11.3909
▁explor	-11.3916
▁blower	-11.3917
▁decide	-11.3921
yo	-11.3923
field	-11.3926
▁weld	-11.3933
▁parachut	-11.3938
▁care	-11.394
held	-11.3941
draw	-11.3942
▁fork	-11.3944
sses	-11.3949
▁weight	-11.3964
▁filmed	-11.3974
▁ho	-11.3996
▁hi	-11.4
▁typ	-11.4002
▁snowmobile	-11.4003
tic	-11.4007
ging	-11.4013
▁materials	-11.4074
▁backpacker	-11.4079
▁watermelons	-11.4081
apid	-11.4082
▁thought	-11.409
▁snorkel	-11.409
▁cookies	-11.4092
▁sold	-11.4103
▁wand	-11.4109
▁bump	-11.4113
▁Beautiful	-11.4124
▁Gentlem	-11.4124
▁crib	-11.4124
▁scattered	-11.4124
▁families	-11.4124
▁curious	-11.4124
▁spend	-11.4124
▁pail	-11.4124
▁cobble	-11.4124
▁fleece	-11.4124
▁dishwash	-11.4124
▁schoolgirl	-11.4124
▁puff	-11.4124
▁Father	-11.4124
▁vase	-11.4124
▁cartoon	-11.4125
▁Ice	-11.4125
▁shout	-11.4125
▁Long	-11.4126
▁youngster	-11.4129
▁count	-11.4129
▁Pe	-11.413
▁solder	-11.414
▁similarly	-11.416
▁drift	-11.416
served	-11.4165
▁comb	-11.4169
▁Bear	-11.4175
ham	-11.4179
▁mitt	-11.4185
R	-11.4207
ted	-11.4211
litary	-11.4231
▁piles	-11.4252
▁soak	-11.4253
▁barking	-11.4285
▁dribbl	-11.4288
▁heat	-11.4304
▁struggl	-11.4305
▁sw	-11.4307
▁cr	-11.4317
fashion	-11.4325
mo	-11.4326
what	-11.4326
▁cellphones	-11.4333
wheeler	-11.4341
▁lad	-11.4342
▁brid	-11.436
▁grip	-11.4369
king	-11.4385
hole	-11.4417
L	-11.4448
▁instruct	-11.4507
▁Snow	-11.4508
▁High	-11.4508
▁Picture	-11.4508
▁destination	-11.4508
▁donut	-11.4508
▁favor	-11.4508
▁halter	-11.4508
▁husband	-11.4508
▁iPod	-11.4508
▁quilt	-11.4508
▁relay	-11.4508
▁simultaneous	-11.4508
▁Dirt	-11.4508
▁javelin	-11.4508
▁Orange	-11.4508
▁floppy	-11.4508
▁priest	-11.4508
▁salad	-11.4508
▁equestrian	-11.4509
▁drain	-11.4509
▁technician	-11.4509
▁campus	-11.4509
▁instruction	-11.4509
▁prob	-11.451
▁crest	-11.451
▁distan	-11.451
▁survey	-11.451
Bob	-11.4511
▁fuzz	-11.4513
▁cartwheel	-11.4514
▁Race	-11.4521
▁somebody	-11.4521
▁waterski	-11.4532
▁shack	-11.4535
▁tugg	-11.4536
▁scrap	-11.4536
▁cling	-11.4543
▁cock	-11.4546
▁loud	-11.4556
▁camper	-11.4562
trio	-11.4567
▁tagg	-11.4571
▁uns	-11.4591
▁shed	-11.4596
▁thinking	-11.4603
ating	-11.4614
ware	-11.462
tation	-11.4623
▁la	-11.464
▁pigeon	-11.4643
ture	-11.4675
▁bean	-11.4685
pit	-11.4691
▁remove	-11.4709
▁fle	-11.473
▁Cal	-11.475
▁fl	-11.4758
▁bows	-11.4761
ama	-11.4766
▁know	-11.4785
▁sheer	-11.4801
▁rub	-11.4804
▁fully	-11.4808
▁prop	-11.4818
lung	-11.4827
io	-11.4832
rest	-11.4841
▁huddl	-11.4859
▁o	-11.4867
▁fram	-11.4882
hopping	-11.4896
▁led	-11.4905
▁wrapping	-11.4906
strict	-11.4908
▁Gold	-11.4908
▁cubicle	-11.4908
▁cushion	-11.4908
▁elegant	-11.4908
▁submerge	-11.4908
▁tulips	-11.4908
▁wheat	-11.4908
▁windbreaker	-11.4908
▁sweet	-11.4908
▁ceremoni	-11.4908
▁teddy	-11.4908
▁unison	-11.4908
▁prize	-11.4908
▁cashier	-11.4909
▁hover	-11.4909
▁mail	-11.4909
▁everywhere	-11.4909
▁slot	-11.4909
▁loose	-11.4909
▁kitten	-11.491
▁dil	-11.491
▁cannon	-11.4912
▁muscle	-11.4913
▁apparently	-11.4913
▁Shoppe	-11.4913
▁moon	-11.4914
▁seeds	-11.4914
xotic	-11.4914
▁railway	-11.4916
▁collie	-11.4923
▁mad	-11.4926
▁cultural	-11.4935
▁excitedly	-11.4954
ier	-11.4955
urf	-11.4965
▁Ro	-11.4977
▁popp	-11.498
▁clip	-11.4996
▁dai	-11.5004
▁dyed	-11.5005
▁happening	-11.5014
▁Ne	-11.5015
▁chickens	-11.5023
▁fir	-11.5023
▁Wo	-11.5054
▁seagull	-11.5057
▁address	-11.508
▁congregate	-11.5085
▁flu	-11.5094
teen	-11.5116
▁gifts	-11.5122
body	-11.5129
box	-11.5144
▁recline	-11.5155
weed	-11.5155
▁bark	-11.5162
▁whiteboard	-11.5183
▁Ga	-11.5202
cess	-11.5202
at	-11.5219
▁rails	-11.5249
umo	-11.53
▁kiddi	-11.5304
▁ref	-11.5315
▁pain	-11.5316
▁Caf	-11.5324
arathon	-11.5324
▁concession	-11.5325
▁crutch	-11.5325
▁remote	-11.5325
▁zombie	-11.5325
▁talent	-11.5325
▁wristband	-11.5325
▁random	-11.5325
▁breast	-11.5325
▁tightrope	-11.5325
▁leo	-11.5325
▁attraction	-11.5325
▁solo	-11.5326
▁squint	-11.5326
▁hairnet	-11.5327
▁selection	-11.5327
muff	-11.5329
▁paintbrush	-11.5329
▁trainer	-11.533
▁silk	-11.5332
▁proper	-11.5332
▁Hiker	-11.5333
▁po	-11.5334
▁safe	-11.5336
▁English	-11.5337
▁Skier	-11.5342
▁woodwork	-11.5347
▁armor	-11.5348
▁unit	-11.535
ouse	-11.5351
▁storm	-11.5357
sure	-11.5373
ever	-11.5374
una	-11.5374
nant	-11.5406
▁tri	-11.5407
▁teache	-11.542
▁formally	-11.5424
▁snap	-11.5459
▁let	-11.5469
scent	-11.5477
▁floatie	-11.5479
▁boot	-11.5496
▁tong	-11.5525
▁rop	-11.5548
▁trucks	-11.5553
▁layer	-11.5569
shine	-11.5574
boat	-11.5575
▁bug	-11.5579
▁traveler	-11.5583
lar	-11.5591
ber	-11.5597
▁ties	-11.5632
ra	-11.5643
ci	-11.5655
ta	-11.5666
▁add	-11.5675
▁bun	-11.5677
▁self	-11.5684
▁sew	-11.5685
▁ripp	-11.57
ug	-11.5712
▁mats	-11.5717
▁architectur	-11.5723
vil	-11.5734
pped	-11.5738
▁Rollerblade	-11.5749
▁lett	-11.5757
ridge	-11.5758
▁reveal	-11.576
▁corridor	-11.576
▁hispanic	-11.576
▁intricate	-11.576
▁lollipop	-11.576
▁ritual	-11.576
▁snowstorm	-11.576
▁sombrero	-11.576
▁cathedral	-11.576
▁graphic	-11.576
▁sunbathe	-11.576
▁Outdoor	-11.576
▁ankle	-11.576
▁dangerous	-11.576
▁Water	-11.576
▁pub	-11.576
▁hedge	-11.576
▁gig	-11.576
▁domino	-11.5761
▁Ok	-11.5761
▁winning	-11.5761
▁solid	-11.5761
▁cabin	-11.5761
▁clasp	-11.5762
▁mallet	-11.5762
▁prin	-11.5762
▁liqu	-11.5763
▁operation	-11.5765
▁eager	-11.5765
▁woodland	-11.5769
▁beaker	-11.577
▁jam	-11.5775
▁strawberry	-11.5775
▁streamer	-11.5778
▁arra	-11.5782
▁zoo	-11.5785
ston	-11.5792
▁cob	-11.5794
▁exchange	-11.5807
tle	-11.5811
▁ris	-11.5815
▁pitching	-11.5816
▁taste	-11.5822
▁collide	-11.5837
yro	-11.5842
nit	-11.5857
timate	-11.5865
ponge	-11.5888
om	-11.5906
▁stride	-11.5914
▁contemplat	-11.593
▁entertainer	-11.5931
ap	-11.5931
▁chip	-11.5933
▁masc	-11.5936
▁cord	-11.5938
▁ax	-11.5948
▁backward	-11.5955
▁cause	-11.5962
▁downward	-11.5964
▁Re	-11.5977
li	-11.5995
▁ferr	-11.6005
▁active	-11.6011
▁agil	-11.6017
▁weave	-11.6017
▁wakeboarding	-11.6028
first	-11.6031
woman	-11.6032
▁ob	-11.6037
▁clos	-11.6043
uch	-11.6066
br	-11.6087
oke	-11.6093
ge	-11.6097
▁weights	-11.61
arket	-11.6121
▁stock	-11.6123
▁chains	-11.6129
suit	-11.6133
▁release	-11.6147
▁strings	-11.619
dding	-11.6195
▁horizontal	-11.6201
▁cheers	-11.6205
▁tomato	-11.6207
▁scru	-11.6211
▁magnif	-11.6213
onopoly	-11.6213
▁gallop	-11.6214
▁Obama	-11.6214
▁Onlooker	-11.6214
▁artificial	-11.6214
▁billiard	-11.6214
▁lavender	-11.6214
▁memorial	-11.6214
▁pretzel	-11.6214
▁professor	-11.6214
▁respond	-11.6214
▁spandex	-11.6214
▁spatula	-11.6214
▁Disney	-11.6214
▁culture	-11.6214
▁civilian	-11.6214
▁binder	-11.6215
▁combat	-11.6215
▁marina	-11.6215
▁Halloween	-11.6215
▁hour	-11.6215
▁Arabic	-11.6215
▁bongo	-11.6215
▁headscar	-11.6215
▁fixture	-11.6216
▁Amish	-11.6216
▁vine	-11.6217
▁browse	-11.6217
▁manual	-11.6217
▁dent	-11.6219
▁Light	-11.6222
▁shit	-11.6222
▁repel	-11.6222
▁shell	-11.6222
▁moss	-11.6226
hoop	-11.6231
▁leashe	-11.6231
▁determin	-11.6234
ssenger	-11.6234
▁language	-11.6236
▁welder	-11.6237
▁artistic	-11.6238
ow	-11.6244
striped	-11.6248
▁oversize	-11.6251
▁Gray	-11.626
▁prof	-11.6264
▁drumstick	-11.6269
▁Fan	-11.6271
▁island	-11.6276
▁releas	-11.6282
▁meter	-11.6285
▁Team	-11.6295
potted	-11.6296
▁ban	-11.6306
▁Ho	-11.6306
▁our	-11.631
▁butt	-11.6317
ches	-11.6333
▁piercing	-11.634
▁Ma	-11.6343
try	-11.6345
▁Dr	-11.6347
nder	-11.6357
▁chil	-11.6368
sque	-11.6368
▁Easter	-11.6376
▁goats	-11.6383
▁tip	-11.6397
ose	-11.6397
iv	-11.6401
▁br	-11.6406
▁sp	-11.6409
lor	-11.6417
▁dangl	-11.6432
▁concentrate	-11.644
▁bust	-11.646
▁bone	-11.6464
▁damage	-11.647
room	-11.6482
▁All	-11.6486
▁state	-11.6488
ette	-11.65
road	-11.6504
▁harnesse	-11.6505
Y	-11.6507
book	-11.6508
▁awe	-11.6527
▁legg	-11.6547
some	-11.6548
os	-11.6563
▁dim	-11.6616
▁actor	-11.6618
rel	-11.665
▁seeming	-11.6655
▁slip	-11.6664
▁patrol	-11.6668
▁Go	-11.6671
ig	-11.6674
▁Work	-11.6676
▁sparkl	-11.6688
▁express	-11.669
▁list	-11.669
▁Grea	-11.6691
▁Motorcycle	-11.6691
▁apparatus	-11.6691
▁bronze	-11.6691
▁crystal	-11.6691
▁earbud	-11.6691
▁ensemble	-11.6691
▁procedure	-11.6691
▁resort	-11.6691
▁rooster	-11.6691
▁technique	-11.6691
▁unidentifi	-11.6691
▁answer	-11.6691
▁waffle	-11.6691
▁janitor	-11.6691
▁except	-11.6691
▁ditch	-11.6691
▁Apple	-11.6691
▁Starbuck	-11.6691
▁Wall	-11.6691
▁defensive	-11.6691
▁steal	-11.6691
▁vacation	-11.6691
▁Speedo	-11.6691
▁mingle	-11.6691
▁detail	-11.6691
▁dentist	-11.6691
▁vast	-11.6691
▁elementary	-11.6691
▁peel	-11.6691
▁bookbag	-11.6692
▁lei	-11.6692
▁shingle	-11.6692
▁tanned	-11.6692
▁retail	-11.6693
▁gum	-11.6694
▁girlfriend	-11.6697
▁wineglasses	-11.6698
▁Star	-11.6698
▁capri	-11.6699
▁Performer	-11.6702
▁pulley	-11.6703
▁web	-11.6706
▁escape	-11.6708
ckey	-11.6711
▁punk	-11.6714
▁merchant	-11.6717
▁frolic	-11.6721
▁ran	-11.6725
ac	-11.6729
▁scope	-11.6732
ashing	-11.6738
▁skipp	-11.6755
▁juggler	-11.6777
▁em	-11.6799
▁decorate	-11.6804
ick	-11.6811
▁brace	-11.6813
▁skill	-11.6815
▁exercises	-11.6832
hoe	-11.6835
▁non	-11.6851
▁barrels	-11.6859
▁Bus	-11.6865
▁inline	-11.6869
▁Ra	-11.6876
▁chang	-11.6894
▁pe	-11.6909
▁onlooker	-11.6926
▁gymnastic	-11.6932
▁No	-11.6966
▁signing	-11.7013
▁greet	-11.7014
ilitary	-11.7048
▁dr	-11.7067
▁positioned	-11.7081
▁battl	-11.7089
▁incom	-11.7097
▁singers	-11.7133
▁conver	-11.715
▁health	-11.7157
▁hu	-11.7165
▁grow	-11.7168
sion	-11.7168
▁Bike	-11.718
▁weigh	-11.718
▁Hol	-11.7181
▁Europe	-11.7183
▁appare	-11.719
▁pursu	-11.719
▁occup	-11.7191
▁cinder	-11.7191
▁Happ	-11.7191
▁Israel	-11.7191
▁Pizza	-11.7191
▁Segway	-11.7191
▁article	-11.7191
▁cemetery	-11.7191
▁expans	-11.7191
▁importan	-11.7191
▁loaf	-11.7191
▁ollie	-11.7191
▁pamphlet	-11.7191
▁pavilion	-11.7191
▁poncho	-11.7191
▁scantily	-11.7191
▁trouser	-11.7191
▁captain	-11.7191
▁lumber	-11.7191
▁Horse	-11.7191
▁continue	-11.7191
▁drunk	-11.7191
▁pitbull	-11.7191
▁nine	-11.7191
▁convey	-11.7191
▁seashore	-11.7191
▁Over	-11.7191
kart	-11.7191
▁bad	-11.7191
▁access	-11.7191
▁master	-11.7191
▁accent	-11.7191
▁fluore	-11.7191
▁tunic	-11.7191
▁disk	-11.7191
▁gain	-11.7192
▁skimp	-11.7194
jac	-11.7196
▁Singer	-11.7199
dex	-11.7199
▁confused	-11.7203
▁overturn	-11.7203
cut	-11.7206
▁wakeboarder	-11.7207
▁Toy	-11.7211
▁ador	-11.7211
▁handicap	-11.7221
▁Every	-11.7222
▁studie	-11.7223
▁rollerskater	-11.7232
▁gloved	-11.7232
▁streak	-11.7239
▁brownish	-11.7244
▁donations	-11.7254
▁kites	-11.7275
▁tightly	-11.7279
▁force	-11.7288
▁stroke	-11.7289
▁Big	-11.7291
▁poi	-11.7296
ell	-11.731
▁lid	-11.7319
ma	-11.7325
nd	-11.7335
▁fitt	-11.7335
▁hooked	-11.7351
eese	-11.7352
rid	-11.7378
▁ra	-11.7378
▁knitted	-11.7382
dot	-11.7399
▁gra	-11.7423
▁eyed	-11.7433
▁bicycler	-11.7436
▁La	-11.7442
▁je	-11.7456
▁nett	-11.7471
▁para	-11.7489
mel	-11.7504
▁addresse	-11.7509
ago	-11.7517
ga	-11.7519
▁react	-11.7525
▁pu	-11.7526
pan	-11.755
lly	-11.7567
▁gam	-11.7593
▁squa	-11.7599
ue	-11.765
▁pr	-11.7656
▁tuck	-11.7659
nia	-11.7675
▁hunt	-11.7699
stride	-11.7707
▁wi	-11.7707
▁mattress	-11.7709
▁should	-11.7709
▁wineglass	-11.7709
▁plush	-11.7709
▁kit	-11.7711
▁acrobat	-11.7715
▁conta	-11.7716
▁Member	-11.7717
▁Professional	-11.7717
▁awkward	-11.7717
▁cluster	-11.7717
▁gondola	-11.7717
▁hurry	-11.7717
▁knives	-11.7717
▁meditating	-11.7717
▁skeleton	-11.7717
▁thread	-11.7717
▁Brazil	-11.7717
▁salmon	-11.7717
▁dramatic	-11.7717
▁stairwell	-11.7717
▁cocktail	-11.7717
▁patriotic	-11.7717
▁Out	-11.7717
▁spill	-11.7717
▁mesh	-11.7717
▁handkerchief	-11.7718
▁sledge	-11.7718
▁cutoff	-11.7718
▁lesson	-11.7719
▁chaps	-11.7719
▁host	-11.772
▁cylinder	-11.7721
▁rein	-11.7722
quet	-11.7724
▁reporter	-11.7725
▁tune	-11.7735
▁growl	-11.7737
▁coal	-11.7737
▁movement	-11.7739
▁playhouse	-11.7741
▁dug	-11.7744
erby	-11.7747
▁snowbank	-11.7751
attered	-11.7753
▁brand	-11.7753
gen	-11.7756
▁Ti	-11.7757
unk	-11.7765
▁wallet	-11.7767
ate	-11.777
▁comfortabl	-11.7779
▁par	-11.7782
▁glider	-11.7783
uce	-11.7784
ust	-11.7785
od	-11.7787
▁warn	-11.7807
▁footballer	-11.7812
▁Mr	-11.7819
▁bea	-11.7828
▁cats	-11.785
▁bi	-11.7853
▁supervis	-11.7854
▁partly	-11.786
▁controll	-11.7869
▁flo	-11.787
▁So	-11.7872
▁maker	-11.7876
ather	-11.7882
▁screens	-11.7896
ific	-11.7897
▁greeting	-11.7906
▁soaking	-11.7969
bell	-11.7981
▁tricycles	-11.799
▁surroundings	-11.7991
▁scared	-11.7993
▁oar	-11.8001
▁wipe	-11.8013
▁Tw	-11.8013
▁sleds	-11.8014
▁explore	-11.803
tan	-11.8034
ward	-11.8045
craft	-11.8062
▁bandage	-11.8067
high	-11.8083
▁delivering	-11.8084
Col	-11.8084
pipe	-11.8085
fire	-11.8091
shot	-11.8092
deep	-11.8108
them	-11.8111
▁bowing	-11.8124
painted	-11.8141
▁glow	-11.8142
ver	-11.8148
▁trimm	-11.8169
attle	-11.8181
▁Bat	-11.819
da	-11.8194
itting	-11.8216
care	-11.8218
▁char	-11.8218
▁squeez	-11.8222
ega	-11.8234
▁baker	-11.8246
fro	-11.825
interested	-11.825
▁Grand	-11.8251
ility	-11.8254
▁Bicycle	-11.8256
▁skip	-11.826
ut	-11.8265
▁Guitar	-11.8272
▁Scout	-11.8272
▁Yankee	-11.8272
▁brochure	-11.8272
▁graduate	-11.8272
▁kabob	-11.8272
▁kettle	-11.8272
▁lizard	-11.8272
▁minivan	-11.8272
▁overhang	-11.8272
▁penguin	-11.8272
▁pineapple	-11.8272
▁pompom	-11.8272
▁rehearsing	-11.8272
▁wreck	-11.8272
▁zebra	-11.8272
▁Chef	-11.8272
itchen	-11.8272
▁Mountain	-11.8272
▁pepper	-11.8273
▁veteran	-11.8273
▁tram	-11.8273
▁tether	-11.8273
▁entry	-11.8273
▁steak	-11.8273
▁chunk	-11.8273
▁vocalist	-11.8273
▁Italian	-11.8273
▁Local	-11.8273
▁junk	-11.8273
▁strain	-11.8273
▁strong	-11.8273
▁Artist	-11.8273
▁skillet	-11.8273
▁ginger	-11.8273
▁outcrop	-11.8273
▁raw	-11.8273
▁arrangement	-11.8273
▁refreshment	-11.8273
onster	-11.8275
▁visitor	-11.8275
▁breakdancer	-11.8275
▁contestant	-11.8276
▁Rug	-11.8276
▁platter	-11.8276
ifor	-11.8277
▁Teen	-11.8278
▁slowly	-11.8283
▁husky	-11.8283
▁butter	-11.8283
▁joke	-11.8284
ake	-11.8289
▁assemble	-11.8289
▁Deer	-11.8289
▁gay	-11.8289
▁trombone	-11.829
▁Art	-11.8291
▁Farmer	-11.8296
▁magic	-11.8306
bb	-11.8311
ened	-11.8323
▁tid	-11.8323
▁tutus	-11.8323
▁prevent	-11.8323
▁chart	-11.8343
gent	-11.8347
▁dye	-11.8354
▁Con	-11.8354
▁conveni	-11.8359
eyed	-11.836
▁peddl	-11.8362
▁seal	-11.8366
aw	-11.8367
▁Elev	-11.8372
▁begg	-11.838
▁grown	-11.8382
▁styl	-11.8384
let	-11.8391
▁dunes	-11.846
▁electronics	-11.846
▁dome	-11.8478
▁archer	-11.8484
terior	-11.8494
▁ka	-11.8514
oo	-11.8515
▁gr	-11.852
▁onion	-11.8548
▁wit	-11.8551
▁tambourine	-11.8578
▁pinstripe	-11.8587
rish	-11.8597
▁vaulting	-11.8617
▁tubes	-11.8623
▁interior	-11.863
▁sculptures	-11.8632
▁snaps	-11.8632
keeper	-11.867
▁populat	-11.8673
foam	-11.8676
torch	-11.8677
horn	-11.8678
blue	-11.8678
bridge	-11.8679
type	-11.868
▁season	-11.8682
▁yell	-11.8687
▁page	-11.8691
▁wigs	-11.8693
▁heel	-11.8696
▁trays	-11.8722
▁bon	-11.8732
▁salut	-11.8752
▁dec	-11.8804
▁arriv	-11.8833
col	-11.8834
▁dip	-11.8836
▁trek	-11.8854
ennis	-11.8855
▁breakdance	-11.8857
▁eag	-11.8859
arriage	-11.886
▁Shop	-11.886
▁dread	-11.8861
▁Business	-11.8861
▁Greyhound	-11.8861
▁crochet	-11.8861
▁locomotive	-11.8861
▁parasol	-11.8861
▁remain	-11.8861
▁sleigh	-11.8861
▁stethoscope	-11.8861
▁tread	-11.8861
▁warrior	-11.8861
▁Walk	-11.8861
▁lamb	-11.8861
▁rappel	-11.8861
▁root	-11.8861
▁hippie	-11.8861
▁volunteer	-11.8861
▁jackhammer	-11.8861
▁cowgirl	-11.8861
▁anchor	-11.8861
▁Buddhist	-11.8861
▁swamp	-11.8861
▁insect	-11.8861
▁entire	-11.8861
▁fingernail	-11.8861
▁confront	-11.8861
▁carrot	-11.8861
▁Photo	-11.8861
▁winner	-11.8861
▁melt	-11.8861
▁nut	-11.8862
▁Well	-11.8862
▁Sun	-11.8862
▁portion	-11.8863
▁nothing	-11.8863
▁Music	-11.8864
▁send	-11.8864
▁might	-11.8865
tible	-11.8866
▁carpenter	-11.8866
▁stoplight	-11.8867
▁concern	-11.8867
▁maintain	-11.8867
▁windsurfer	-11.8868
▁necktie	-11.8869
▁Lab	-11.8869
▁china	-11.8869
▁Hot	-11.8876
▁final	-11.8878
▁defense	-11.8878
▁passage	-11.8878
▁sticker	-11.8882
iew	-11.8883
▁pastel	-11.8885
▁pastry	-11.8885
▁bagel	-11.8886
▁watercraft	-11.889
aring	-11.8893
cat	-11.8895
▁hairstyle	-11.8897
function	-11.89
▁Ten	-11.8901
▁classical	-11.8903
▁cann	-11.8904
▁nud	-11.8906
▁quarter	-11.8906
elve	-11.8915
▁grandm	-11.8925
llig	-11.8929
▁greenhouse	-11.8932
▁bill	-11.8933
▁Sports	-11.8953
▁lunge	-11.8954
▁focuse	-11.8965
▁arrive	-11.8971
▁Br	-11.9005
mic	-11.9016
▁flier	-11.9022
▁burgers	-11.9025
ship	-11.9026
▁olympics	-11.9038
▁patrons	-11.9038
▁glowing	-11.9051
▁darker	-11.9052
▁boa	-11.9073
▁fiddle	-11.9077
▁presse	-11.9079
acks	-11.9101
▁ja	-11.9115
▁suite	-11.9125
▁oars	-11.9158
▁Mu	-11.9162
▁gentle	-11.9164
▁barb	-11.9165
▁decid	-11.9197
sie	-11.9219
▁decoration	-11.922
llo	-11.9231
bs	-11.9232
▁El	-11.9233
▁fairy	-11.9253
▁frost	-11.9257
east	-11.9264
off	-11.9277
wis	-11.9284
circle	-11.93
▁feel	-11.9302
screen	-11.9303
bench	-11.9303
row	-11.9304
▁emb	-11.9309
▁sculpt	-11.931
ious	-11.931
▁buff	-11.9325
▁study	-11.9336
▁interest	-11.9341
▁ju	-11.9342
▁glide	-11.9349
▁pa	-11.9366
truck	-11.9372
Aid	-11.9384
bi	-11.9396
▁railings	-11.9424
▁trot	-11.9445
▁brooms	-11.9461
▁Bride	-11.9465
▁Teenage	-11.9471
ka	-11.9473
▁ends	-11.9476
▁circu	-11.948
▁tob	-11.9484
▁Latin	-11.9484
▁blank	-11.9485
lender	-11.9486
▁passionate	-11.9486
▁Concert	-11.9486
▁Nintendo	-11.9486
▁Patrick	-11.9486
▁eyebrow	-11.9486
▁gorilla	-11.9486
▁problem	-11.9486
▁quit	-11.9486
▁rectang	-11.9486
▁region	-11.9486
▁satchel	-11.9486
▁somersault	-11.9486
▁vessel	-11.9486
▁scoring	-11.9486
▁bonnet	-11.9486
▁llama	-11.9486
▁mushroom	-11.9486
▁physical	-11.9486
▁Road	-11.9486
▁tribe	-11.9486
▁price	-11.9486
▁Nav	-11.9486
▁beaut	-11.9486
▁limo	-11.9486
▁shoeshine	-11.9487
▁replac	-11.9487
▁wok	-11.9487
▁spout	-11.9487
udio	-11.9487
▁tear	-11.9488
▁Chic	-11.9488
▁sift	-11.9489
▁breed	-11.9489
▁protector	-11.9489
▁procession	-11.9489
▁dollar	-11.949
▁perfect	-11.9493
▁World	-11.9493
▁diam	-11.9493
phon	-11.9494
enthusiastically	-11.9499
apan	-11.95
▁rocker	-11.9501
dom	-11.9514
▁mixe	-11.9519
print	-11.952
▁occurr	-11.9524
▁blade	-11.9529
be	-11.9535
tage	-11.9536
gy	-11.9545
ax	-11.9548
▁wal	-11.9554
▁fine	-11.9559
▁hawk	-11.9566
▁torches	-11.9571
▁Hell	-11.9587
▁shields	-11.9599
▁barriers	-11.963
the	-11.966
▁anticipat	-11.9661
▁fashionabl	-11.9662
▁Or	-11.9663
▁scrubb	-11.967
ubway	-11.9671
▁tun	-11.9673
wards	-11.9687
▁chops	-11.969
bling	-11.9695
ough	-11.9706
▁mean	-11.9707
▁Col	-11.9709
▁orders	-11.973
hi	-11.974
bery	-11.9752
▁winds	-11.976
▁San	-11.9772
▁fountains	-11.9773
bed	-11.9794
nna	-11.9803
▁ver	-11.9843
▁lamps	-11.9846
nning	-11.9849
▁glanc	-11.9856
ex	-11.9861
efront	-11.9864
▁crayon	-11.9887
▁pajama	-11.9887
▁east	-11.9895
na	-11.9902
thing	-11.9921
▁labor	-11.9924
ah	-11.9942
▁da	-11.9951
turn	-11.9953
water	-11.9964
length	-11.9967
bound	-11.9969
fish	-11.9972
▁happen	-11.9977
▁cube	-11.9986
q	-11.9993
ank	-11.9993
swing	-11.9993
▁provid	-12
▁flex	-12.0013
▁scratche	-12.0016
▁hoe	-12.0023
▁sales	-12.0025
▁sisters	-12.0027
▁Cr	-12.0027
chest	-12.0044
ement	-12.0045
boy	-12.0047
ong	-12.0055
escent	-12.01
gs	-12.0103
▁Ski	-12.0116
▁mer	-12.012
▁balcon	-12.0121
▁squir	-12.013
vin	-12.0136
▁enthusiastic	-12.014
▁holes	-12.0145
assengers	-12.0152
ietnam	-12.0152
▁Athlete	-12.0152
▁College	-12.0152
▁blacksmith	-12.0152
▁bloom	-12.0152
▁cereal	-12.0152
▁chemical	-12.0152
▁consult	-12.0152
▁crocodile	-12.0152
▁croquet	-12.0152
▁diligent	-12.0152
▁embroider	-12.0152
▁hijab	-12.0152
▁typewriter	-12.0152
▁wizard	-12.0152
▁shrine	-12.0152
▁Summ	-12.0152
▁neat	-12.0152
▁sprawl	-12.0152
▁machete	-12.0152
▁beanbag	-12.0152
▁glaci	-12.0152
▁Good	-12.0152
▁foil	-12.0152
kept	-12.0152
▁hundred	-12.0152
▁cent	-12.0153
▁shock	-12.0153
▁recreation	-12.0153
▁spear	-12.0153
▁technolog	-12.0153
▁university	-12.0153
▁suds	-12.0153
▁Bank	-12.0153
endors	-12.0153
▁What	-12.0153
▁dorm	-12.0153
▁shutter	-12.0154
▁teeter	-12.0154
▁mittens	-12.0154
▁spiral	-12.0154
lerk	-12.0155
▁coke	-12.0155
▁queen	-12.0155
▁bunk	-12.0156
▁drenche	-12.0157
▁era	-12.0159
▁presum	-12.016
▁dealer	-12.016
▁paintball	-12.016
▁Photographer	-12.0161
▁advertise	-12.0162
▁national	-12.0163
▁save	-12.0165
ushi	-12.0165
▁metropolita	-12.0165
▁pew	-12.0168
▁Rider	-12.0169
▁Met	-12.0176
▁route	-12.0178
▁cutout	-12.0178
▁handful	-12.0186
▁East	-12.019
▁rocket	-12.0194
▁Em	-12.0196
▁trott	-12.0197
art	-12.0198
▁won	-12.0221
lywood	-12.0228
▁lover	-12.0228
▁conditions	-12.0239
▁traverse	-12.0241
tar	-12.0242
▁windsurfing	-12.0246
▁hitch	-12.0256
aving	-12.027
▁deal	-12.0276
aul	-12.0277
ild	-12.0285
owl	-12.0287
ba	-12.0287
ph	-12.0312
▁pensive	-12.0319
ock	-12.0319
▁blown	-12.0322
▁rim	-12.0333
bu	-12.0337
pav	-12.0412
gar	-12.0422
oul	-12.0452
▁glance	-12.0458
ign	-12.0459
▁joyful	-12.0475
▁ethnicit	-12.0476
▁tu	-12.0523
uation	-12.0531
▁batt	-12.0533
▁fr	-12.0539
▁reed	-12.0539
▁states	-12.0554
▁matur	-12.0564
▁fil	-12.058
rise	-12.0585
▁cords	-12.0607
▁warmer	-12.0614
ak	-12.0615
fi	-12.0616
bble	-12.0633
▁mar	-12.0636
▁navigat	-12.064
▁crim	-12.0669
american	-12.0684
bread	-12.0684
wall	-12.0685
view	-12.0686
load	-12.0693
▁think	-12.0694
▁pierc	-12.0724
pad	-12.0732
▁holder	-12.0766
roll	-12.0771
ox	-12.0777
▁Hu	-12.0781
▁emotion	-12.0782
lets	-12.0796
▁fists	-12.0815
▁worship	-12.0818
▁punche	-12.0844
ota	-12.0844
▁brave	-12.0853
▁swa	-12.0854
▁custom	-12.0858
▁slow	-12.0858
rap	-12.0865
ricket	-12.0866
enaissance	-12.0866
▁blur	-12.0866
▁percussion	-12.0866
dida	-12.0866
▁Gymnast	-12.0867
▁poverty	-12.0867
▁prominent	-12.0867
▁Barefoot	-12.0867
▁bazaar	-12.0867
▁blind	-12.0867
▁charcoal	-12.0867
▁chemist	-12.0867
▁coca	-12.0867
▁geometric	-12.0867
▁ninja	-12.0867
▁normal	-12.0867
▁specimen	-12.0867
▁trouble	-12.0867
▁utensil	-12.0867
▁velvet	-12.0867
▁smear	-12.0867
▁tiara	-12.0867
▁joust	-12.0867
▁loiter	-12.0867
▁sequin	-12.0867
▁vivid	-12.0867
▁simpl	-12.0867
▁forklift	-12.0867
▁mingling	-12.0867
▁tussl	-12.0867
▁spell	-12.0867
▁melon	-12.0867
▁smash	-12.0867
▁pearl	-12.0867
▁bathrobe	-12.0867
▁manicure	-12.0867
▁Beach	-12.0867
▁doorstep	-12.0867
▁pound	-12.0867
▁Renaissance	-12.0867
▁lifeguard	-12.0867
BA	-12.0867
▁dispos	-12.0867
▁Back	-12.0868
▁sculptor	-12.0868
▁textile	-12.0868
▁coworker	-12.0868
▁monopoly	-12.0868
▁demolish	-12.0869
▁horseshoe	-12.0869
▁billow	-12.0869
ney	-12.0871
ravin	-12.0871
▁plugg	-12.0872
▁creation	-12.0873
▁halfway	-12.0875
▁Sky	-12.0875
▁fam	-12.0876
▁Mom	-12.088
▁Mich	-12.0883
▁Thai	-12.0885
▁horizontally	-12.0888
solate	-12.0894
▁eater	-12.09
vest	-12.091
▁romantic	-12.0918
fourth	-12.0923
lad	-12.0927
▁squeeze	-12.0933
▁seek	-12.0945
▁Love	-12.0949
▁chipp	-12.0949
▁Sh	-12.0959
temporary	-12.0973
▁villager	-12.0978
ble	-12.0981
▁trade	-12.0999
enta	-12.1002
▁beater	-12.1003
▁Not	-12.1004
▁Poke	-12.1017
▁stoo	-12.1022
▁drags	-12.1022
▁Fisherm	-12.1028
▁drawer	-12.103
ute	-12.1037
ory	-12.1058
skier	-12.1064
▁Th	-12.1072
ast	-12.1074
▁bats	-12.1076
▁pirates	-12.1085
▁troops	-12.1095
▁hol	-12.11
▁gran	-12.1125
link	-12.1151
▁sole	-12.1162
elli	-12.1163
que	-12.1165
▁grate	-12.1175
ad	-12.1191
▁cheerful	-12.1191
stro	-12.1197
isco	-12.122
▁flee	-12.1246
mber	-12.126
pi	-12.1266
▁Wh	-12.1269
▁sno	-12.1275
▁videotap	-12.1302
walk	-12.1303
▁spa	-12.1331
▁badge	-12.1371
rong	-12.1375
▁Mor	-12.1395
ister	-12.1406
pensive	-12.1447
hammer	-12.1453
stairs	-12.1454
burn	-12.1456
hold	-12.1457
bone	-12.1465
ear	-12.1468
ved	-12.1485
ador	-12.1495
bet	-12.1534
▁relaxed	-12.1553
▁fed	-12.1554
▁comic	-12.1588
▁personal	-12.1589
▁allow	-12.1597
▁mag	-12.1606
▁dropp	-12.1613
▁Gi	-12.1624
▁sauce	-12.1626
▁rig	-12.1627
▁quarte	-12.1629
▁nation	-12.1635
elcome	-12.1635
▁Roller	-12.1636
rainstorm	-12.1636
▁abstract	-12.1636
▁adventure	-12.1636
▁album	-12.1636
▁aluminum	-12.1636
▁amplifier	-12.1636
▁bulb	-12.1636
▁colourful	-12.1636
▁communicating	-12.1636
▁fierce	-12.1636
▁figurine	-12.1636
▁govern	-12.1636
▁liberty	-12.1636
▁napkin	-12.1636
▁peanut	-12.1636
▁pelican	-12.1636
▁popsicle	-12.1636
▁potential	-12.1636
▁recipe	-12.1636
▁rival	-12.1636
▁skewer	-12.1636
▁snuggl	-12.1636
▁tissue	-12.1636
▁whisper	-12.1636
▁Monk	-12.1636
▁Museum	-12.1636
▁knight	-12.1636
▁occasion	-12.1636
▁session	-12.1636
▁socialize	-12.1636
▁lobster	-12.1636
▁loving	-12.1636
▁basin	-12.1636
▁gorge	-12.1636
▁marshmallow	-12.1636
▁Super	-12.1636
▁forearm	-12.1636
roupe	-12.1636
▁Doctor	-12.1636
▁romp	-12.1636
▁vac	-12.1636
▁ruffle	-12.1636
▁arrest	-12.1636
▁enforc	-12.1636
▁stylish	-12.1636
▁landmark	-12.1636
▁Game	-12.1636
▁plywood	-12.1636
▁Christian	-12.1636
▁rib	-12.1637
▁backflip	-12.1637
▁shotgun	-12.1637
▁Giant	-12.1637
▁become	-12.1637
▁crush	-12.1637
▁applaud	-12.1638
▁bodies	-12.1638
▁creature	-12.1638
▁cue	-12.1638
▁Bright	-12.1638
▁pug	-12.1639
▁spool	-12.1639
▁Youth	-12.1639
▁Brit	-12.164
▁thatched	-12.164
▁coin	-12.1641
▁Angeles	-12.1641
▁ballgame	-12.1642
▁lingeri	-12.1643
▁assistant	-12.1643
utumn	-12.1643
▁bullet	-12.1647
▁idea	-12.165
rador	-12.165
ace	-12.1651
▁mountaineer	-12.1651
▁projection	-12.1653
▁Centr	-12.1654
▁commuter	-12.1658
▁western	-12.1659
▁bury	-12.1663
tery	-12.1666
MA	-12.1671
▁aggressive	-12.1676
mate	-12.1681
▁Free	-12.1687
ook	-12.1689
goer	-12.169
▁buys	-12.1691
▁gentl	-12.1692
▁dipp	-12.1694
▁discover	-12.17
▁gro	-12.1714
▁Sp	-12.1717
▁grimace	-12.1733
kul	-12.1733
▁greenish	-12.1735
olic	-12.1737
▁dam	-12.1742
▁observed	-12.1744
▁avail	-12.1745
▁wor	-12.1752
▁clam	-12.1754
shes	-12.1758
▁tipp	-12.1771
bar	-12.1782
▁separat	-12.1783
▁Fro	-12.1787
▁flexib	-12.1801
▁Bi	-12.1808
▁cong	-12.181
ump	-12.1816
▁To	-12.182
sphere	-12.1823
▁dum	-12.1829
▁picked	-12.1834
uit	-12.1835
▁min	-12.1849
aster	-12.1868
▁lockers	-12.1877
▁lung	-12.1887
▁videotape	-12.1894
▁console	-12.1925
▁herb	-12.1948
ler	-12.1961
ction	-12.2011
▁angels	-12.2012
▁lace	-12.2039
play	-12.2055
▁peruse	-12.2063
eye	-12.2078
ike	-12.2084
ows	-12.2092
▁str	-12.2119
▁crop	-12.2159
▁mi	-12.2187
til	-12.2199
eij	-12.2199
▁sock	-12.2212
▁Sub	-12.2222
ties	-12.2222
maid	-12.2255
pt	-12.2259
▁En	-12.2267
▁ba	-12.2283
▁vi	-12.2284
ready	-12.2287
bike	-12.2288
▁mis	-12.2293
▁straddl	-12.2293
deer	-12.23
▁intimate	-12.2304
▁miss	-12.2308
▁charg	-12.2336
▁stud	-12.2336
▁promot	-12.2337
dyed	-12.234
▁Ta	-12.2341
▁roped	-12.2353
▁streetlight	-12.2366
itt	-12.2372
pper	-12.2375
stone	-12.2377
LE	-12.2381
▁clea	-12.2388
ergen	-12.2414
▁Farm	-12.2452
▁flap	-12.2453
▁prim	-12.2459
▁sub	-12.2461
arget	-12.2463
▁tr	-12.2464
▁refresh	-12.2468
▁beak	-12.2468
▁creme	-12.2469
▁spaghetti	-12.2469
pproximate	-12.2469
▁Camera	-12.2469
▁Clown	-12.2469
▁Flag	-12.2469
▁Garden	-12.2469
▁Individual	-12.2469
▁Motorcyclist	-12.2469
▁Ocean	-12.2469
▁Train	-12.2469
▁artifact	-12.2469
▁ceramic	-12.2469
▁choos	-12.2469
▁choreograph	-12.2469
▁cloak	-12.2469
▁evergreen	-12.2469
▁honor	-12.2469
▁sibling	-12.2469
▁smirk	-12.2469
▁swirl	-12.2469
▁tailgat	-12.2469
▁wildflower	-12.2469
▁doberman	-12.2469
▁kickboxer	-12.2469
▁mexic	-12.2469
▁turntable	-12.2469
▁autograph	-12.2469
▁santa	-12.2469
▁statute	-12.2469
▁shaft	-12.2469
▁york	-12.2469
▁compact	-12.2469
▁suspens	-12.2469
▁preschool	-12.2469
▁Berlin	-12.2469
▁amazement	-12.2469
dobe	-12.2469
▁grape	-12.2469
▁Gate	-12.2469
▁strand	-12.2469
▁pounc	-12.2469
▁wake	-12.247
▁Home	-12.247
▁auto	-12.247
rizon	-12.247
▁bulldog	-12.247
▁cuddl	-12.247
▁stem	-12.247
▁mock	-12.2471
▁candid	-12.2471
▁enthusiast	-12.2471
▁devil	-12.2472
▁Boat	-12.2472
▁Hand	-12.2472
adio	-12.2473
▁reflector	-12.2473
▁indicat	-12.2473
▁pl	-12.2474
▁Bush	-12.2474
▁Spring	-12.2475
▁snowfall	-12.2475
▁gla	-12.2475
▁overflow	-12.2476
▁slat	-12.2476
▁DS	-12.2476
▁respective	-12.2476
▁operator	-12.2478
▁kill	-12.2479
▁pout	-12.2481
▁mind	-12.2482
nion	-12.2482
▁Pre	-12.2484
bout	-12.2485
nar	-12.2485
▁paraglid	-12.2486
▁maneuvers	-12.2486
▁skydiver	-12.2487
▁highlight	-12.2488
oir	-12.2492
▁pasture	-12.2493
ogg	-12.2496
▁fade	-12.2498
▁globe	-12.2499
▁countertop	-12.2504
▁cact	-12.2504
▁headlight	-12.2509
▁patroll	-12.251
▁competitively	-12.251
▁mate	-12.2511
▁hound	-12.2512
▁twi	-12.2517
▁director	-12.2521
▁boarder	-12.2523
▁dodge	-12.2537
▁architectural	-12.2543
ho	-12.2543
nish	-12.2543
▁amus	-12.2547
▁fift	-12.2551
▁fasten	-12.2555
▁dumps	-12.2559
▁recorder	-12.2563
▁whist	-12.2564
▁Tan	-12.2565
▁compos	-12.2572
lap	-12.2575
▁closer	-12.2576
eze	-12.259
role	-12.2591
▁cages	-12.2599
▁finishe	-12.2599
▁airline	-12.2606
▁amazing	-12.2612
▁Inter	-12.2617
▁bearer	-12.2628
▁gates	-12.2633
▁pep	-12.2644
odeo	-12.2645
▁die	-12.2655
▁pasta	-12.2665
ron	-12.2691
▁topic	-12.2694
▁buckle	-12.2702
▁Play	-12.2711
▁eyeli	-12.2718
▁taped	-12.2728
▁bustl	-12.2735
▁streetlights	-12.2753
▁outline	-12.2767
AR	-12.2783
▁sandwiche	-12.2811
inted	-12.2842
nky	-12.2867
rches	-12.287
▁drumm	-12.2876
otted	-12.2882
▁fu	-12.2889
▁Bra	-12.2941
alo	-12.2944
coat	-12.2953
▁leave	-12.2959
cal	-12.2966
▁tar	-12.2979
▁hero	-12.2979
sia	-12.2981
our	-12.2983
▁contemplate	-12.3008
urst	-12.3045
SC	-12.3046
▁Seat	-12.3048
▁props	-12.3057
▁lose	-12.3059
ern	-12.3078
▁Pop	-12.3095
▁olympic	-12.3106
▁patron	-12.3106
▁ponder	-12.3106
▁cradle	-12.3115
▁locker	-12.3133
▁ge	-12.3137
▁landscap	-12.3139
▁dar	-12.315
▁manipulat	-12.3167
▁flyer	-12.3168
long	-12.3169
▁plan	-12.3185
▁Dad	-12.3193
daughter	-12.3196
person	-12.3196
brown	-12.3196
gun	-12.3196
scale	-12.3197
flight	-12.3198
▁Rod	-12.3217
▁ram	-12.3233
nail	-12.3261
▁grimac	-12.3264
far	-12.3274
rough	-12.3279
race	-12.3305
▁hurt	-12.3308
climbing	-12.3309
▁equ	-12.3311
lid	-12.3325
▁tumble	-12.3336
ternation	-12.3336
▁fo	-12.3338
▁mine	-12.3339
▁rat	-12.3343
▁strawberr	-12.3346
met	-12.3349
▁unwrap	-12.335
▁divid	-12.3355
▁Colorful	-12.3364
▁fort	-12.3365
▁brow	-12.3366
▁barricades	-12.3374
stead	-12.3375
niform	-12.3378
▁Moto	-12.3378
▁represent	-12.3378
▁escort	-12.3378
▁swaddl	-12.3378
olkswag	-12.3378
▁contort	-12.3378
▁draft	-12.3378
▁glitter	-12.3378
ctopus	-12.3378
hua	-12.3378
▁Celtic	-12.3378
▁Croc	-12.3378
▁Florida	-12.3378
▁Ikea	-12.3378
▁Mardi	-12.3378
▁Newlywed	-12.3378
▁Rescue	-12.3378
▁chandelier	-12.3378
▁exciting	-12.3378
▁mariachi	-12.3378
▁origin	-12.3378
▁pedestal	-12.3378
▁screwdriver	-12.3378
▁slalom	-12.3378
▁trinket	-12.3378
▁yawns	-12.3378
▁anxious	-12.3378
▁desperate	-12.3378
▁girder	-12.3378
▁subject	-12.3378
▁footprints	-12.3378
▁mulch	-12.3378
▁source	-12.3378
▁torso	-12.3378
▁Russia	-12.3378
▁detect	-12.3378
▁paramedic	-12.3378
▁vista	-12.3378
▁leisure	-12.3378
▁reuni	-12.3379
▁dragster	-12.3379
▁creep	-12.3379
▁animated	-12.3379
Phone	-12.3379
▁steady	-12.3379
▁witness	-12.3379
▁excavator	-12.3379
▁slant	-12.3379
▁mold	-12.3379
▁thrill	-12.3379
racial	-12.3379
▁pleasant	-12.3379
▁Port	-12.3379
▁prun	-12.3379
▁Tall	-12.338
stein	-12.338
▁claw	-12.3381
▁ladle	-12.3382
▁joyous	-12.3382
▁pullover	-12.3382
▁shark	-12.3382
▁stitch	-12.3383
▁whisk	-12.3383
▁hail	-12.3383
▁corral	-12.3383
▁ranch	-12.3385
▁Bird	-12.3387
jo	-12.3388
▁equip	-12.3388
▁sil	-12.3388
▁whale	-12.3388
▁trekk	-12.3389
▁Island	-12.3389
▁again	-12.3396
▁slump	-12.3399
▁slipper	-12.3401
▁jeweler	-12.3404
▁till	-12.3405
▁experience	-12.3406
▁hazard	-12.3406
▁bumper	-12.3408
▁sharpen	-12.3408
▁controller	-12.3415
cola	-12.3415
berry	-12.3416
▁saucer	-12.3418
▁Passer	-12.3421
arade	-12.3421
▁tumbl	-12.3422
▁walkie	-12.3423
▁came	-12.3424
▁creative	-12.343
ik	-12.3431
rac	-12.3432
▁Ital	-12.3436
▁duel	-12.3436
cious	-12.3437
▁viol	-12.3437
▁law	-12.3437
▁handler	-12.3438
▁snapp	-12.3446
▁poorly	-12.3446
▁flatb	-12.3447
▁booklet	-12.3447
eria	-12.3449
RO	-12.3469
▁strangely	-12.349
▁engineer	-12.3493
ostume	-12.3495
alloween	-12.3497
▁cracker	-12.3508
nny	-12.3513
▁crashe	-12.3516
lk	-12.3526
▁challeng	-12.3529
Ex	-12.3533
▁copy	-12.3537
▁ye	-12.3541
ken	-12.3548
▁topping	-12.3554
fter	-12.356
▁troop	-12.3561
dor	-12.3574
even	-12.358
▁Even	-12.3582
ilot	-12.3595
▁notice	-12.3599
owing	-12.3613
tanding	-12.3616
▁outward	-12.3648
▁chore	-12.3652
cade	-12.3655
▁bout	-12.3659
ley	-12.3674
▁oversee	-12.3676
▁sprinkl	-12.3707
▁Stor	-12.3713
▁badges	-12.3719
cloth	-12.3726
ugh	-12.3755
▁rushe	-12.3759
hoops	-12.3759
▁cur	-12.3759
▁Twiste	-12.3772
▁spit	-12.3778
▁pol	-12.3783
▁keeper	-12.3786
rank	-12.3805
ora	-12.3831
▁storefronts	-12.3841
▁situat	-12.3845
pping	-12.3851
▁smokey	-12.3853
▁peaco	-12.387
story	-12.3879
ecker	-12.3893
cel	-12.3903
aves	-12.3906
▁Si	-12.391
potty	-12.3929
ively	-12.3935
▁Ly	-12.3967
▁excavat	-12.3968
▁bur	-12.3974
H	-12.3977
sur	-12.398
▁skim	-12.3988
▁media	-12.4007
▁slop	-12.4018
cin	-12.4022
ort	-12.4026
▁downwards	-12.4031
▁disco	-12.4031
ada	-12.4045
▁cata	-12.4052
over	-12.4053
▁turbans	-12.4066
▁chor	-12.4089
▁Pi	-12.4096
▁rapid	-12.4113
▁lighter	-12.4115
wa	-12.4117
mul	-12.4141
▁burger	-12.4144
lack	-12.4164
eak	-12.4167
▁launche	-12.417
tender	-12.4171
spectacle	-12.4182
ctor	-12.4183
grown	-12.4191
▁Sam	-12.4193
lantern	-12.4194
eastern	-12.4195
stock	-12.4195
block	-12.4196
bird	-12.4196
crowd	-12.4196
chief	-12.4199
wash	-12.4208
aisle	-12.4209
watch	-12.4213
▁peddle	-12.4215
▁challenge	-12.4216
iver	-12.4225
away	-12.4238
night	-12.425
▁pri	-12.4255
blow	-12.4262
▁uni	-12.4264
ictorian	-12.4283
amp	-12.4289
▁parad	-12.4292
▁pea	-12.4293
yard	-12.4313
ix	-12.4323
ub	-12.4331
▁commut	-12.4349
▁research	-12.4349
▁Cook	-12.4353
ina	-12.4362
▁boom	-12.4362
▁relat	-12.4362
▁Isla	-12.4366
▁Skateboard	-12.4367
quin	-12.437
▁trans	-12.4371
▁Africa	-12.4372
▁doze	-12.4374
▁carpent	-12.4374
▁Marti	-12.4375
▁wrangl	-12.4375
▁graffit	-12.4376
thnic	-12.4377
▁exam	-12.4377
titch	-12.4378
cense	-12.4378
▁roam	-12.4378
▁swoop	-12.4378
▁Circu	-12.4378
▁MacBook	-12.4378
▁Pink	-12.4378
▁Senior	-12.4378
▁SquarePants	-12.4378
▁Tattoo	-12.4378
▁assignment	-12.4378
▁bluish	-12.4378
▁brindle	-12.4378
▁buoy	-12.4378
▁camcorder	-12.4378
▁clenche	-12.4378
▁crotch	-12.4378
▁deflat	-12.4378
▁diagram	-12.4378
▁encourag	-12.4378
▁espresso	-12.4378
▁freckle	-12.4378
▁frustrat	-12.4378
▁grandfather	-12.4378
▁karaoke	-12.4378
▁lanyard	-12.4378
▁martini	-12.4378
▁mortar	-12.4378
▁nursing	-12.4378
▁postcard	-12.4378
▁restrain	-12.4378
▁scientific	-12.4378
▁souvenir	-12.4378
▁unfold	-12.4378
▁utiliz	-12.4378
▁volcano	-12.4378
▁North	-12.4378
▁compris	-12.4378
▁cosplay	-12.4378
▁pallet	-12.4378
▁saxaphone	-12.4378
▁Australia	-12.4378
▁tinker	-12.4378
▁knead	-12.4378
▁transaction	-12.4378
▁Center	-12.4378
▁dachshund	-12.4378
▁extinguish	-12.4378
▁program	-12.4378
▁cork	-12.4378
▁terrace	-12.4378
▁swallow	-12.4378
▁accompany	-12.4379
▁spirit	-12.4379
▁regal	-12.4379
▁tux	-12.4379
▁trend	-12.4379
▁Dress	-12.4379
▁midriff	-12.4379
▁notepad	-12.4379
▁Hall	-12.4379
▁Tree	-12.4379
▁noise	-12.4379
▁copper	-12.4379
▁Power	-12.4379
▁fishnet	-12.4379
▁argu	-12.438
▁syringe	-12.438
▁classmate	-12.438
▁speedboat	-12.438
▁campground	-12.438
▁Tour	-12.438
undred	-12.438
▁canister	-12.438
icated	-12.438
▁Latino	-12.438
▁gap	-12.4381
▁Stone	-12.4381
▁plaque	-12.4381
▁Terrier	-12.4382
arate	-12.4382
▁restroom	-12.4383
iffe	-12.4384
▁fairground	-12.4385
▁flor	-12.4385
▁Top	-12.4386
▁zipper	-12.4386
shir	-12.4387
▁giggl	-12.4389
▁Canad	-12.4392
▁nest	-12.4392
▁bookshelf	-12.4393
▁Lone	-12.4394
▁slight	-12.4395
▁flapp	-12.4402
▁attende	-12.4402
▁dash	-12.4404
▁Salva	-12.4404
▁sewer	-12.4408
▁unwrapp	-12.441
▁backhand	-12.4411
▁graceful	-12.4413
MC	-12.4415
▁ballroom	-12.4417
lays	-12.4426
▁CD	-12.4443
▁passer	-12.4444
▁Bur	-12.4445
▁lathe	-12.4449
gue	-12.4449
▁adjustment	-12.445
▁onward	-12.4456
▁sucker	-12.446
▁canon	-12.4467
ism	-12.4485
rate	-12.4488
▁zipp	-12.4488
rought	-12.4499
PS	-12.4502
▁Chi	-12.4504
▁lu	-12.4505
▁Stev	-12.4519
rais	-12.452
▁Poo	-12.4529
▁frog	-12.4532
▁pebble	-12.4537
▁shear	-12.4537
▁spec	-12.4544
fa	-12.4577
▁prays	-12.4578
cer	-12.4585
▁wa	-12.4586
▁caus	-12.4591
▁wrapper	-12.4597
▁zooms	-12.4607
ease	-12.4607
▁totter	-12.4633
▁documents	-12.4634
▁invert	-12.4634
▁massag	-12.4645
gon	-12.4645
▁carton	-12.4647
▁owl	-12.4657
rom	-12.4657
dem	-12.4678
▁rep	-12.4682
▁today	-12.4684
▁misse	-12.4688
▁searche	-12.4688
▁seasoning	-12.4701
ddy	-12.4711
▁conv	-12.4726
▁gir	-12.4729
istic	-12.473
oh	-12.4735
cide	-12.4741
▁amaz	-12.4741
▁ston	-12.4751
▁Bu	-12.478
sign	-12.4783
lway	-12.4792
rash	-12.481
▁Live	-12.4812
▁measure	-12.483
▁completed	-12.4858
▁chopped	-12.4863
▁Spa	-12.4867
▁pages	-12.4877
end	-12.4895
pee	-12.4902
▁intern	-12.4907
door	-12.493
▁mustach	-12.4934
itness	-12.495
▁pops	-12.5004
▁Arab	-12.5012
▁cal	-12.5017
illy	-12.502
ito	-12.5031
pin	-12.5047
all	-12.5049
▁whip	-12.5071
pace	-12.5074
▁secure	-12.5104
▁rode	-12.5109
unt	-12.5111
▁bl	-12.5124
zzl	-12.5125
owa	-12.5163
ndy	-12.5172
her	-12.5178
▁smok	-12.5183
▁tast	-12.5196
▁document	-12.5211
irway	-12.5217
▁linen	-12.5239
oat	-12.5271
▁collid	-12.5295
▁sto	-12.5297
mark	-12.5305
venue	-12.5306
lamp	-12.5307
▁drape	-12.5315
▁bot	-12.5322
▁rafter	-12.5335
Man	-12.5337
▁pitche	-12.5341
ower	-12.5354
▁fri	-12.5358
▁spectate	-12.5359
▁exchang	-12.5367
dye	-12.5386
cas	-12.5399
▁Lea	-12.5412
robe	-12.5418
CE	-12.5425
▁cry	-12.543
▁viole	-12.5431
▁informal	-12.5433
▁Gu	-12.5449
▁roman	-12.5453
▁rid	-12.5453
▁blend	-12.5457
▁sanit	-12.5458
ached	-12.5467
▁apparent	-12.5477
verage	-12.548
▁vari	-12.5485
▁breeze	-12.5487
▁attract	-12.5487
▁Gro	-12.5488
hallenge	-12.5488
▁pharmac	-12.5489
▁vocal	-12.5489
olution	-12.5489
graph	-12.5489
▁brief	-12.5489
▁Extreme	-12.5489
ING	-12.5489
credibl	-12.5489
▁Employee	-12.5489
▁Engine	-12.5489
▁Festival	-12.5489
▁Foreign	-12.5489
▁Heavy	-12.5489
▁Liberty	-12.5489
▁Popsicle	-12.5489
▁astronaut	-12.5489
▁certificate	-12.5489
▁chimney	-12.5489
▁colonial	-12.5489
▁develop	-12.5489
▁eccentric	-12.5489
▁extra	-12.5489
▁faucet	-12.5489
▁gladiator	-12.5489
▁handcuff	-12.5489
▁iPad	-12.5489
▁igloo	-12.5489
▁improvise	-12.5489
▁limousine	-12.5489
▁opportunity	-12.5489
▁pistol	-12.5489
▁reason	-12.5489
▁rummag	-12.5489
▁saxophonist	-12.5489
▁scrimmage	-12.5489
▁scroll	-12.5489
▁shampoo	-12.5489
▁shredd	-12.5489
▁summit	-12.5489
▁tassel	-12.5489
▁victim	-12.5489
▁Cross	-12.5489
▁collaps	-12.5489
▁grappl	-12.5489
▁windmill	-12.5489
▁nylon	-12.5489
▁humorous	-12.5489
▁smartphone	-12.5489
▁announcement	-12.5489
▁distor	-12.5489
▁europe	-12.5489
▁spanish	-12.5489
▁extravagant	-12.5489
▁Revolution	-12.5489
▁erect	-12.549
▁joking	-12.549
▁swift	-12.549
▁delicious	-12.549
▁prison	-12.549
▁flank	-12.549
▁license	-12.549
▁pluck	-12.549
▁gang	-12.549
▁benef	-12.549
▁south	-12.549
▁refrigerator	-12.549
▁Paris	-12.549
▁unpack	-12.549
▁Domino	-12.549
▁Wonder	-12.549
▁magician	-12.549
▁triangle	-12.549
▁hipster	-12.549
▁toenail	-12.549
▁pursuit	-12.549
▁typical	-12.549
▁jaw	-12.549
▁Redhead	-12.5491
▁recital	-12.5491
▁sheepdog	-12.5491
▁punt	-12.5491
▁loop	-12.5491
▁shut	-12.5491
▁fanny	-12.5491
▁mike	-12.5491
▁alert	-12.5491
▁mason	-12.5491
▁indig	-12.5491
▁Bridge	-12.5491
▁placard	-12.5492
adill	-12.5492
▁twig	-12.5492
▁worrie	-12.5492
▁sightsee	-12.5493
itive	-12.5493
▁wrangle	-12.5493
affe	-12.5493
▁dingy	-12.5493
▁poll	-12.5494
▁reel	-12.5494
▁boil	-12.5494
▁tech	-12.5495
▁grandchild	-12.5495
▁Dio	-12.5496
▁imitat	-12.5496
▁now	-12.5497
▁delight	-12.5497
▁Truck	-12.5498
▁sym	-12.5498
▁specialize	-12.5498
▁preserver	-12.5501
coli	-12.5502
▁Tri	-12.5502
▁eff	-12.5503
▁busily	-12.5503
▁rigg	-12.5504
▁frolick	-12.5505
▁rot	-12.5508
▁cramp	-12.5508
▁Cru	-12.5508
▁desp	-12.5508
▁Row	-12.5509
cted	-12.5509
▁litera	-12.5509
▁dude	-12.551
▁End	-12.5512
▁fail	-12.5512
▁Dis	-12.5514
▁divider	-12.5519
▁twenty	-12.5519
▁Skii	-12.5523
hop	-12.5523
▁regard	-12.5524
▁distracted	-12.5526
▁hunter	-12.5529
▁Mille	-12.5534
▁haz	-12.5534
▁moor	-12.554
▁future	-12.5541
▁primar	-12.5545
▁hope	-12.5545
▁lego	-12.5546
▁cropp	-12.5549
▁grayish	-12.5551
▁pleas	-12.5555
▁unusually	-12.5562
▁healthy	-12.5566
oyal	-12.5575
▁cha	-12.5576
▁capes	-12.5583
▁describe	-12.5586
▁hilltop	-12.5604
▁observers	-12.5613
rmed	-12.5617
▁Bag	-12.5624
uc	-12.5632
▁investigate	-12.5634
▁evil	-12.5634
▁musli	-12.5637
▁execute	-12.5648
▁prey	-12.5654
▁stretcher	-12.5657
▁backside	-12.5659
ray	-12.5668
▁snarl	-12.5669
▁Deli	-12.5676
▁tasting	-12.5677
▁vie	-12.5679
▁resemble	-12.568
▁cot	-12.5688
▁cit	-12.5692
▁charge	-12.5701
evel	-12.5704
▁provide	-12.571
pose	-12.5711
▁waste	-12.5711
▁Pro	-12.5754
ugar	-12.5764
old	-12.5764
▁Bl	-12.5781
ked	-12.5789
▁novelt	-12.579
▁sid	-12.5811
ught	-12.5815
▁ga	-12.5827
▁Po	-12.5835
ater	-12.584
ader	-12.584
▁Na	-12.5849
rays	-12.5861
vent	-12.5893
▁busk	-12.5895
▁supporter	-12.5898
▁sta	-12.5905
ift	-12.5918
ible	-12.6008
ON	-12.6009
▁tab	-12.6011
stage	-12.6019
olv	-12.602
▁Cast	-12.6035
OR	-12.6042
ari	-12.6058
uk	-12.6069
▁Sta	-12.6086
maze	-12.6093
▁Mad	-12.6101
▁Astro	-12.6124
▁cris	-12.6146
▁dove	-12.6148
ael	-12.6166
dog	-12.6204
erry	-12.6211
▁mob	-12.6212
▁Com	-12.6231
▁cola	-12.6233
▁Mo	-12.6241
▁wish	-12.625
ican	-12.6258
parent	-12.6269
▁fiddl	-12.628
▁sprinkle	-12.6289
▁impress	-12.6291
▁Cur	-12.6303
▁dial	-12.6308
▁sandal	-12.631
can	-12.6314
lev	-12.6317
▁rower	-12.6332
case	-12.6332
▁Roman	-12.6352
▁vo	-12.6374
▁Multi	-12.6381
▁arrange	-12.6384
▁anticipati	-12.6387
par	-12.6397
▁startl	-12.64
DA	-12.6402
▁wrists	-12.6418
▁celebrat	-12.6426
▁brim	-12.6428
opy	-12.6442
RE	-12.6449
lt	-12.6459
▁bou	-12.647
▁spectator	-12.6475
lace	-12.6483
▁bro	-12.6498
win	-12.6517
▁zoom	-12.6519
▁Rac	-12.6519
▁grid	-12.6523
▁fi	-12.6534
cap	-12.6534
ash	-12.6537
fight	-12.6541
stroke	-12.6545
tting	-12.6546
▁windsurf	-12.6546
plane	-12.6546
pool	-12.6553
fac	-12.6554
theater	-12.6556
skating	-12.6556
writ	-12.6556
golf	-12.6557
skirt	-12.6557
panel	-12.6557
path	-12.6558
show	-12.6558
horse	-12.6558
school	-12.6558
speaker	-12.6558
hood	-12.6558
▁scrambl	-12.6559
port	-12.6559
leap	-12.6561
arter	-12.6563
▁bathe	-12.6566
ancer	-12.6573
meter	-12.6589
pti	-12.6592
▁canno	-12.6599
▁hous	-12.6605
amper	-12.6617
gra	-12.662
▁Sha	-12.6624
arbie	-12.6629
▁Fin	-12.6638
bak	-12.6641
▁energ	-12.6642
▁plum	-12.6644
etro	-12.6646
▁presen	-12.6653
ista	-12.6653
alks	-12.6654
▁Pac	-12.666
arrot	-12.6668
dri	-12.6678
rider	-12.668
▁organize	-12.6682
sks	-12.6685
▁Sur	-12.6694
▁server	-12.6696
▁Fam	-12.6703
immer	-12.6704
▁twent	-12.6707
▁troph	-12.6707
▁cul	-12.6708
▁Run	-12.6716
▁report	-12.672
painting	-12.672
▁crow	-12.6722
▁Rid	-12.6727
▁plug	-12.6731
▁tw	-12.6731
▁blaz	-12.6731
▁Angel	-12.6732
hadow	-12.6732
glo	-12.6736
▁Bir	-12.6736
▁seren	-12.6737
▁cuddle	-12.6738
lementary	-12.6738
ject	-12.6738
arents	-12.6739
▁alter	-12.6739
▁advan	-12.6739
▁feat	-12.6739
▁author	-12.6739
olunteer	-12.6739
spective	-12.6739
quaint	-12.6739
▁Louis	-12.6739
▁appropriate	-12.6739
▁flamboyant	-12.6739
▁nervous	-12.6739
▁thorough	-12.6739
▁timber	-12.6739
shtray	-12.6739
▁Ballerina	-12.6739
▁Capri	-12.6739
▁Collie	-12.6739
▁Commuter	-12.6739
▁Heineke	-12.6739
▁Memoria	-12.6739
▁Pitcher	-12.6739
▁Traveler	-12.6739
▁Walgreen	-12.6739
▁breastfeed	-12.6739
▁briskly	-12.6739
▁calligraph	-12.6739
▁colleague	-12.6739
▁envelope	-12.6739
▁frightened	-12.6739
▁geisha	-12.6739
▁geyser	-12.6739
▁gnaw	-12.6739
▁gurne	-12.6739
▁gypsy	-12.6739
▁identify	-12.6739
▁remodel	-12.6739
▁scribbl	-12.6739
▁shrimp	-12.6739
▁shrug	-12.6739
▁shuffl	-12.6739
▁stencil	-12.6739
▁stewardess	-12.6739
▁Corp	-12.6739
▁consider	-12.6739
▁ecstatic	-12.6739
▁hurl	-12.6739
▁intercept	-12.6739
▁proceed	-12.6739
▁replica	-12.6739
▁rottweil	-12.6739
▁amphi	-12.6739
▁biscuit	-12.6739
▁delicate	-12.6739
▁distribut	-12.6739
▁tickl	-12.6739
▁palace	-12.6739
▁Grouch	-12.674
▁distress	-12.674
▁keg	-12.674
▁dj	-12.674
▁gender	-12.674
▁Again	-12.674
▁corset	-12.674
▁Peace	-12.674
▁version	-12.674
▁posses	-12.674
▁miniskirt	-12.674
▁pouch	-12.674
▁wound	-12.674
▁disinterested	-12.674
avan	-12.674
▁Winnie	-12.674
▁priva	-12.674
▁advance	-12.674
▁camo	-12.674
▁speck	-12.674
▁date	-12.674
▁Face	-12.674
▁cuff	-12.674
▁Statu	-12.674
offee	-12.674
▁correct	-12.6741
▁buzz	-12.6741
▁trudg	-12.6741
▁cornfield	-12.6741
▁automat	-12.6741
▁crank	-12.6741
▁moose	-12.6742
▁Fair	-12.6742
▁fool	-12.6742
▁choice	-12.6743
▁stumbl	-12.6743
▁grownup	-12.6743
▁preteen	-12.6743
▁Penn	-12.6743
plex	-12.6744
▁Officer	-12.6744
illager	-12.6745
▁Teacher	-12.6746
▁propeller	-12.6746
▁deter	-12.6746
▁tapestr	-12.6746
▁clim	-12.6747
empt	-12.6747
▁sparse	-12.6748
▁rent	-12.6749
▁freeze	-12.675
▁Hug	-12.6751
aredevil	-12.6751
FL	-12.6752
▁sick	-12.6752
▁outstre	-12.6753
▁Bud	-12.6753
▁boyfriend	-12.6754
▁Palestinian	-12.6754
▁sac	-12.6755
▁Fat	-12.6756
▁syn	-12.6757
▁thigh	-12.6757
▁grim	-12.6758
▁tangle	-12.6758
▁slim	-12.6758
uv	-12.6758
▁consumer	-12.6759
▁require	-12.6759
▁Goal	-12.676
▁relative	-12.6762
▁Ferr	-12.6762
▁pulp	-12.6763
▁slush	-12.6766
▁God	-12.6772
open	-12.6775
▁prepp	-12.6775
▁hairdo	-12.6776
▁Cand	-12.678
stine	-12.6789
▁vertically	-12.6789
▁preserve	-12.6796
▁exhausted	-12.68
antic	-12.6804
nard	-12.6806
zzy	-12.6808
▁brat	-12.6809
latter	-12.6811
▁House	-12.6815
▁Bell	-12.6817
▁pace	-12.6821
▁Bol	-12.6823
brew	-12.6825
▁squi	-12.683
cro	-12.6838
risk	-12.6848
ium	-12.6855
▁prom	-12.6856
▁mush	-12.6864
izer	-12.6866
▁Ir	-12.6867
▁ornately	-12.6869
▁pat	-12.6875
▁pastor	-12.688
▁Line	-12.6887
▁Bill	-12.6898
▁Camp	-12.6915
▁scramble	-12.6924
▁pi	-12.6943
ret	-12.6951
vi	-12.6974
▁hatche	-12.6981
▁salute	-12.6983
▁disab	-12.6989
thy	-12.699
▁straddle	-12.7016
shed	-12.7069
▁que	-12.7073
wel	-12.7089
▁mu	-12.7097
▁feeling	-12.713
▁judg	-12.714
ttle	-12.7152
NA	-12.7159
OS	-12.7165
▁Fre	-12.7167
▁unpa	-12.719
▁stat	-12.721
▁fringe	-12.7215
riding	-12.7227
▁Mac	-12.7255
inter	-12.7258
pra	-12.7262
▁ble	-12.7267
EN	-12.7271
evice	-12.7274
fest	-12.7307
ou	-12.732
▁funk	-12.7323
aga	-12.7337
lette	-12.7345
▁wo	-12.7351
gh	-12.7355
▁tambourines	-12.739
▁obe	-12.7402
za	-12.7441
▁steadie	-12.7451
▁rule	-12.7477
log	-12.748
▁Ri	-12.7512
mat	-12.7546
cc	-12.755
boarder	-12.756
nda	-12.7572
▁involve	-12.7592
▁pic	-12.7609
▁Las	-12.7676
▁pray	-12.7702
nice	-12.7702
▁teach	-12.7715
paint	-12.7735
▁chi	-12.7766
▁drip	-12.7766
uck	-12.7771
rk	-12.7794
climb	-12.7806
olin	-12.7811
acco	-12.7822
psi	-12.7848
un	-12.7852
cell	-12.7852
▁Nu	-12.786
▁Ba	-12.7867
▁Ber	-12.7873
stre	-12.7879
▁lac	-12.7883
tch	-12.7889
▁Side	-12.7906
▁resembl	-12.7925
Mac	-12.7972
▁travers	-12.7973
bag	-12.7973
lock	-12.7978
hawk	-12.798
loud	-12.7981
lift	-12.7982
fork	-12.7983
special	-12.7983
uve	-12.7983
shield	-12.7984
Shirt	-12.7984
cake	-12.7984
spread	-12.7985
weather	-12.7985
pattern	-12.7985
button	-12.7985
scene	-12.7986
uniform	-12.7987
orange	-12.7987
floor	-12.7987
une	-12.7989
throw	-12.799
rod	-12.8002
▁budd	-12.8006
beard	-12.8019
dam	-12.8039
nding	-12.8052
uzzle	-12.8056
tically	-12.8056
asse	-12.8058
run	-12.8059
rocks	-12.8061
▁scra	-12.8061
▁compl	-12.8067
level	-12.8074
▁def	-12.8076
TO	-12.8084
▁Lin	-12.8094
▁exhaust	-12.8099
▁rou	-12.8119
▁packag	-12.8122
tique	-12.8123
oon	-12.8135
ushing	-12.8138
▁dispens	-12.814
▁gri	-12.8152
▁Dist	-12.8153
▁smart	-12.8154
▁furn	-12.8155
▁skydive	-12.8156
aiti	-12.8158
▁Indi	-12.8159
ES	-12.816
tail	-12.816
▁corr	-12.8162
▁retai	-12.8162
airie	-12.8164
rade	-12.8164
▁pizz	-12.8166
atrons	-12.8167
▁Har	-12.8168
▁volley	-12.8168
estaurant	-12.8168
▁announc	-12.8168
▁vigorous	-12.8168
▁triathl	-12.8168
dapple	-12.8168
ssociat	-12.8168
uarterback	-12.8168
▁Athletic	-12.8168
▁Doberman	-12.8168
▁Excit	-12.8168
▁Field	-12.8168
▁Georg	-12.8168
▁Get	-12.8168
▁Mariach	-12.8168
▁Mercedes	-12.8168
▁Participant	-12.8168
▁Scientist	-12.8168
▁Tinker	-12.8168
▁analyz	-12.8168
▁appliance	-12.8168
▁client	-12.8168
▁compound	-12.8168
▁condiment	-12.8168
▁depress	-12.8168
▁difficult	-12.8168
▁diploma	-12.8168
▁engrav	-12.8168
▁expert	-12.8168
▁falcon	-12.8168
▁faux	-12.8168
▁festivit	-12.8168
▁gadget	-12.8168
▁glue	-12.8168
▁habit	-12.8168
▁knoll	-12.8168
▁lattice	-12.8168
▁modifi	-12.8168
▁moustache	-12.8168
▁pagoda	-12.8168
▁particular	-12.8168
▁result	-12.8168
▁scowl	-12.8168
▁slouch	-12.8168
▁strength	-12.8168
▁texa	-12.8168
▁urinat	-12.8168
▁viewfinder	-12.8168
▁vigil	-12.8168
▁yacht	-12.8168
▁intrigu	-12.8168
▁obliv	-12.8168
▁respons	-12.8168
▁wreath	-12.8168
▁easy	-12.8168
▁AID	-12.8168
▁Laker	-12.8168
▁armchair	-12.8168
▁clover	-12.8168
▁explosion	-12.8168
uzu	-12.8168
▁gleeful	-12.8168
▁click	-12.8168
▁Short	-12.8168
▁fortune	-12.8168
▁affectionate	-12.8168
▁communication	-12.8168
xford	-12.8168
▁crumb	-12.8168
▁Marine	-12.8168
▁Prince	-12.8168
▁marine	-12.8168
▁mechanism	-12.8168
▁regret	-12.8168
▁shuttle	-12.8168
▁David	-12.8168
▁cascad	-12.8168
▁Basket	-12.8168
▁milkshake	-12.8168
▁banister	-12.8168
▁champions	-12.8168
ehind	-12.8168
▁Hang	-12.8168
▁gutter	-12.8168
▁carcass	-12.8168
▁emblem	-12.8168
▁Spark	-12.8168
▁vandali	-12.8168
afari	-12.8168
▁lodge	-12.8168
▁chute	-12.8168
▁rins	-12.8168
▁align	-12.8168
▁broc	-12.8168
▁sync	-12.8168
▁nipple	-12.8168
▁Yong	-12.8168
▁beetle	-12.8168
▁Beatle	-12.8168
espa	-12.8169
▁burrito	-12.8169
▁choke	-12.8169
▁brandish	-12.8169
ditional	-12.8169
▁daff	-12.8169
▁reenactment	-12.8169
Tube	-12.8169
anyon	-12.8169
▁effect	-12.8169
▁refus	-12.8169
▁coil	-12.8169
▁Doll	-12.8169
▁ferret	-12.8169
▁brake	-12.8169
▁emptie	-12.8169
hin	-12.817
▁arab	-12.817
ounc	-12.817
▁installation	-12.817
▁kel	-12.817
▁Tech	-12.817
▁bullfight	-12.817
▁Egy	-12.817
▁Nurse	-12.817
▁Color	-12.817
▁glare	-12.817
▁sunshade	-12.817
▁Monster	-12.8171
▁foos	-12.8171
▁pinwheel	-12.8171
▁plaster	-12.8172
▁ID	-12.8172
▁farmland	-12.8172
▁DE	-12.8172
▁stapl	-12.8172
aroo	-12.8173
▁via	-12.8173
▁insert	-12.8173
▁grandma	-12.8175
mster	-12.8175
ordina	-12.8175
▁rotat	-12.8176
▁Engl	-12.8177
▁PC	-12.8177
abst	-12.8178
rchaeologist	-12.8178
▁packet	-12.8178
▁marqu	-12.8178
cept	-12.8179
▁Carol	-12.818
▁vat	-12.818
▁Labor	-12.818
▁Mc	-12.8181
▁pom	-12.8182
▁outfielder	-12.8183
▁Hard	-12.8183
▁Climber	-12.8183
▁pian	-12.8184
▁dojo	-12.8184
actory	-12.8184
▁propell	-12.8188
▁sandpit	-12.8189
median	-12.8189
umbo	-12.8189
▁West	-12.8191
▁mattresses	-12.8192
vert	-12.8192
▁Chevro	-12.8193
▁fran	-12.8194
▁steeple	-12.8195
▁pranc	-12.8201
▁duct	-12.8201
▁cath	-12.8203
▁supervise	-12.8203
▁cruiser	-12.8205
▁bail	-12.8206
▁successful	-12.8206
▁mosque	-12.8208
▁researcher	-12.821
▁darkness	-12.8211
▁Sled	-12.8214
▁Buy	-12.8214
▁splatter	-12.8215
▁dominate	-12.8217
▁outfield	-12.8218
▁Tor	-12.8219
▁22	-12.822
▁welcome	-12.8233
▁laborer	-12.8234
▁Roo	-12.8242
▁clipp	-12.8249
▁did	-12.825
TE	-12.8254
▁comple	-12.8256
▁occupy	-12.8271
IS	-12.8271
BS	-12.8273
▁patt	-12.8278
▁spokes	-12.828
▁condoms	-12.828
▁Cub	-12.8281
▁grade	-12.8283
▁May	-12.8284
▁cleav	-12.8285
▁wildly	-12.8287
dden	-12.8294
▁Racer	-12.8295
oise	-12.8295
▁graze	-12.8305
▁grassland	-12.8319
▁thro	-12.8321
parents	-12.8325
▁tye	-12.833
▁showcas	-12.8332
▁sweeper	-12.835
▁Bal	-12.8352
eague	-12.8355
▁gut	-12.8361
▁spectat	-12.8363
▁beg	-12.8364
▁sin	-12.837
▁sunflowers	-12.837
▁thir	-12.8376
▁Cat	-12.8385
▁promote	-12.8405
▁slee	-12.841
lub	-12.8411
▁sli	-12.8432
TA	-12.8432
▁sl	-12.8444
▁tackler	-12.8446
▁Mick	-12.8451
raid	-12.8454
▁ripple	-12.846
▁spectacle	-12.8462
▁cater	-12.8469
▁respirat	-12.8475
▁Pret	-12.848
▁Mark	-12.8488
▁skillful	-12.8505
▁met	-12.8518
life	-12.8534
action	-12.8544
postal	-12.8566
ool	-12.8578
bur	-12.8583
▁maid	-12.8595
au	-12.8601
LL	-12.8602
shade	-12.8603
tri	-12.8611
▁Fu	-12.8623
opping	-12.8628
zag	-12.8657
each	-12.8667
hip	-12.8667
▁neu	-12.867
evil	-12.8691
att	-12.8717
▁paus	-12.8721
ange	-12.8734
▁mot	-12.879
j	-12.8831
dense	-12.8832
▁Fo	-12.8842
▁rad	-12.8919
bac	-12.8923
omo	-12.8987
tress	-12.9027
▁dangle	-12.9029
buster	-12.9043
culin	-12.9062
ott	-12.9077
gin	-12.9118
▁moo	-12.9124
icken	-12.9125
tte	-12.9141
ugg	-12.9154
enty	-12.9194
▁stylis	-12.9195
▁imp	-12.9217
▁prec	-12.9227
aid	-12.9231
▁Chan	-12.9232
▁Pol	-12.9233
▁elev	-12.925
dresser	-12.9253
formal	-12.927
wind	-12.9286
▁Cra	-12.9286
▁Securi	-12.9313
RA	-12.9319
vision	-12.933
▁novel	-12.9388
▁Holl	-12.9403
odle	-12.9426
post	-12.9438
zy	-12.9442
clud	-12.9443
cons	-12.9454
▁Fisher	-12.9456
rmen	-12.9465
▁observ	-12.9482
▁Who	-12.9496
illa	-12.9497
▁kitt	-12.9522
ude	-12.9522
ailing	-12.9531
▁trad	-12.9537
du	-12.9553
eaten	-12.9563
▁Sport	-12.9566
▁handlebar	-12.9566
hous	-12.9568
hero	-12.9576
▁ignor	-12.9584
▁investigat	-12.9616
bear	-12.9622
▁talki	-12.9625
▁polar	-12.9643
band	-12.9643
▁jo	-12.9646
posing	-12.9646
zoo	-12.9649
maker	-12.965
foot	-12.9652
pole	-12.9652
jacket	-12.9653
power	-12.9653
guard	-12.9653
kick	-12.9655
▁firework	-12.9655
frame	-12.9656
match	-12.9657
▁Cost	-12.9663
rink	-12.9682
visib	-12.9683
▁describ	-12.9688
workers	-12.9691
▁cruis	-12.9707
ost	-12.971
▁fin	-12.9725
ctu	-12.9731
year	-12.9752
▁Hous	-12.9755
▁grave	-12.9765
ompany	-12.9766
▁husk	-12.9767
unning	-12.9769
▁latin	-12.9777
▁Cam	-12.9781
▁croc	-12.9782
▁decor	-12.9782
▁Perform	-12.9791
vation	-12.9794
▁slum	-12.9795
rag	-12.9795
▁nav	-12.9804
▁propel	-12.9805
▁Wait	-12.9809
▁arc	-12.981
▁cherr	-12.9815
▁respect	-12.982
▁journal	-12.9826
riff	-12.9827
innie	-12.9828
▁Gree	-12.9828
foli	-12.9829
ripe	-12.9829
▁Dalmati	-12.983
election	-12.9831
▁colla	-12.9833
▁triang	-12.9833
scribe	-12.9834
▁renovat	-12.9834
▁Class	-12.9834
▁generat	-12.9834
atur	-12.9834
ploy	-12.9834
▁civil	-12.9834
▁bookshel	-12.9834
nual	-12.9834
olleyball	-12.9834
▁euro	-12.9835
▁neighbor	-12.9835
▁obstruct	-12.9835
▁churn	-12.9835
▁cultivat	-12.9835
▁proclaim	-12.9835
Skater	-12.9835
uiznos	-12.9835
▁Blurr	-12.9835
▁Border	-12.9835
▁Carnival	-12.9835
▁Citizen	-12.9835
▁Golf	-12.9835
▁National	-12.9835
▁Ranger	-12.9835
▁Service	-12.9835
▁Special	-12.9835
▁Trader	-12.9835
▁aerodynamic	-12.9835
▁biolog	-12.9835
▁chestnut	-12.9835
▁conceal	-12.9835
▁corporat	-12.9835
▁cucumber	-12.9835
▁didgeridoo	-12.9835
▁dumbbell	-12.9835
▁eclectic	-12.9835
▁encounter	-12.9835
▁general	-12.9835
▁gesticulat	-12.9835
▁improvement	-12.9835
▁incomplete	-12.9835
▁interrupt	-12.9835
▁nibbl	-12.9835
▁oval	-12.9835
▁perfume	-12.9835
▁phrase	-12.9835
▁prosthetic	-12.9835
▁qualit	-12.9835
▁refuge	-12.9835
▁rehearse	-12.9835
▁rhythm	-12.9835
▁seductive	-12.9835
▁shroud	-12.9835
▁spaniel	-12.9835
▁sungalsses	-12.9835
▁thousand	-12.9835
▁untangl	-12.9835
▁wharf	-12.9835
▁Minne	-12.9835
▁Politic	-12.9835
▁referenc	-12.9835
▁venture	-12.9835
▁Saint	-12.9835
▁faint	-12.9835
▁pendant	-12.9835
▁wrinkle	-12.9835
iculous	-12.9835
▁Needle	-12.9835
▁eyelash	-12.9835
▁reced	-12.9835
▁meander	-12.9835
▁etching	-12.9835
▁jester	-12.9835
▁astonish	-12.9835
▁felt	-12.9835
▁muffin	-12.9835
▁blast	-12.9835
▁crude	-12.9835
▁Capit	-12.9835
▁garish	-12.9835
▁minute	-12.9835
▁humm	-12.9835
▁shuck	-12.9835
▁Guard	-12.9835
▁crook	-12.9835
kwon	-12.9835
▁custodian	-12.9835
▁knot	-12.9835
irgin	-12.9835
▁signify	-12.9835
▁stomp	-12.9835
▁week	-12.9835
▁Life	-12.9835
▁Shake	-12.9835
▁thermo	-12.9835
▁affection	-12.9835
▁Mount	-12.9835
▁grung	-12.9835
▁filter	-12.9835
▁hookah	-12.9835
▁retro	-12.9835
maran	-12.9835
▁idle	-12.9835
▁corgi	-12.9835
▁pharmacist	-12.9835
▁piling	-12.9835
▁florist	-12.9835
▁Shelt	-12.9835
▁poem	-12.9835
▁Wine	-12.9836
▁partition	-12.9836
▁excess	-12.9836
▁command	-12.9836
▁percussionist	-12.9836
▁Hind	-12.9836
▁alien	-12.9836
▁Pigeon	-12.9836
▁hollow	-12.9836
▁smith	-12.9836
▁furious	-12.9836
figur	-12.9836
▁title	-12.9836
▁bolt	-12.9836
▁salt	-12.9837
▁Guin	-12.9837
▁wax	-12.9837
aneous	-12.9837
▁beef	-12.9837
▁gave	-12.9837
ckab	-12.9837
llegi	-12.9837
▁Hair	-12.9838
▁fas	-12.9838
▁impo	-12.9838
▁Dora	-12.9838
▁exist	-12.9838
▁Our	-12.9838
▁harle	-12.9838
▁contemporary	-12.9839
▁Night	-12.9839
azon	-12.9839
mpact	-12.9839
crunch	-12.9841
▁Sister	-12.9841
▁nuzzl	-12.9843
▁Dalmatian	-12.9843
▁flatten	-12.9844
narch	-12.9844
▁burst	-12.9845
▁Rep	-12.9845
dominant	-12.9845
▁motorist	-12.9845
aper	-12.9846
▁needle	-12.9846
▁thank	-12.9848
▁dice	-12.9848
quint	-12.9848
Town	-12.9849
▁laz	-12.9849
▁slick	-12.9849
EA	-12.985
▁smartly	-12.9851
▁sax	-12.9851
▁partial	-12.9852
iped	-12.9852
▁stru	-12.9853
▁bushel	-12.9853
▁har	-12.9853
▁sparsely	-12.9853
phan	-12.9855
proof	-12.9855
▁Olympian	-12.9855
▁inspector	-12.9857
verish	-12.9859
▁Runn	-12.986
▁LA	-12.9862
ladd	-12.9863
▁casse	-12.9863
▁plushie	-12.9864
ICE	-12.9865
▁bleache	-12.9866
ptu	-12.9867
ND	-12.9867
endar	-12.987
▁trial	-12.987
▁Rollerblader	-12.988
▁kerchief	-12.9882
▁fillet	-12.9884
▁scann	-12.9887
▁Bicycler	-12.9888
▁gallon	-12.989
▁blender	-12.9893
▁clipper	-12.9893
▁headpiece	-12.9894
▁Grandm	-12.9901
▁soon	-12.9903
▁superi	-12.9904
▁spun	-12.9909
▁triumph	-12.9912
▁uniquely	-12.9919
▁Crea	-12.9921
▁regular	-12.9927
atric	-12.9939
▁teller	-12.9943
▁Dam	-12.996
▁assess	-12.9962
Doo	-12.9967
▁gauge	-12.9969
▁Swi	-12.9977
▁vial	-12.9989
▁sous	-12.9989
▁Luc	-12.9994
▁manager	-12.9997
▁victori	-13.0004
tude	-13.0012
▁comical	-13.0014
▁videotaped	-13.0029
HA	-13.0039
▁Die	-13.0053
Bron	-13.0069
▁ignore	-13.0092
TH	-13.0101
▁smoothie	-13.0107
MP	-13.0114
ition	-13.012
▁plume	-13.0128
▁thoughtful	-13.0136
▁goth	-13.0144
enice	-13.0187
erge	-13.0204
ffle	-13.023
bil	-13.0237
indow	-13.0238
oxy	-13.0246
▁Count	-13.0247
▁manipulate	-13.025
▁radi	-13.0261
erf	-13.0285
▁tort	-13.0288
organ	-13.0327
trum	-13.0365
vid	-13.037
▁Gaz	-13.0376
gan	-13.0387
pot	-13.0411
annot	-13.0413
ois	-13.0417
ood	-13.0428
▁cub	-13.043
hio	-13.0438
ipper	-13.049
check	-13.0508
tered	-13.0511
▁lectur	-13.052
get	-13.0539
▁Pan	-13.0575
▁bodyboard	-13.0612
▁Arabi	-13.0617
elf	-13.0657
Cycl	-13.0672
itter	-13.0676
escription	-13.0709
imi	-13.0725
▁nip	-13.0743
▁perus	-13.0743
▁nec	-13.0772
WI	-13.0823
descript	-13.0861
stern	-13.091
lon	-13.0911
▁Fir	-13.0919
ache	-13.0945
▁Rica	-13.0987
lot	-13.0991
ative	-13.0992
here	-13.0997
ctive	-13.1004
ttractive	-13.1009
▁mac	-13.1014
net	-13.1027
▁Hul	-13.1041
▁Dal	-13.1045
izz	-13.1056
bal	-13.1093
▁va	-13.1125
▁sha	-13.114
cock	-13.1164
▁Del	-13.1168
▁Stop	-13.1184
rona	-13.1193
▁produc	-13.1239
glider	-13.1246
amin	-13.1266
tively	-13.1307
▁brac	-13.1307
▁notic	-13.1376
spiration	-13.1409
▁unto	-13.1416
ipping	-13.1426
pie	-13.1428
▁Pum	-13.1437
tie	-13.1446
ath	-13.1463
mitten	-13.1483
ager	-13.1496
dol	-13.1505
spect	-13.1535
▁execut	-13.1542
▁sunflower	-13.155
▁condition	-13.1562
▁donation	-13.1564
▁headphone	-13.157
▁goggle	-13.1571
dir	-13.16
▁Moo	-13.16
fall	-13.1612
alia	-13.1619
▁sampl	-13.1628
game	-13.1636
nned	-13.1641
▁graz	-13.1642
vention	-13.1642
completed	-13.1643
pack	-13.1645
heel	-13.1646
crew	-13.1647
word	-13.1647
roof	-13.1647
scope	-13.1649
drift	-13.165
cycle	-13.165
dancing	-13.1651
beater	-13.1652
bottom	-13.1652
stream	-13.1652
course	-13.1652
bull	-13.1653
mouth	-13.1653
shore	-13.1653
black	-13.1653
shake	-13.1653
plant	-13.1654
picker	-13.1654
operat	-13.1655
stuff	-13.1655
grass	-13.1665
rail	-13.1667
fiv	-13.167
▁dodg	-13.1671
▁loo	-13.1684
urt	-13.17
gym	-13.1728
itation	-13.1734
estle	-13.1747
latino	-13.1761
iel	-13.1762
▁kne	-13.1763
▁distract	-13.1766
▁grace	-13.1767
shaven	-13.1768
▁Li	-13.1775
drive	-13.1775
▁mari	-13.1778
▁scan	-13.178
rave	-13.1781
ER	-13.1797
▁Far	-13.1798
▁cram	-13.18
▁consum	-13.1803
▁butterfl	-13.1803
ilia	-13.1809
▁Climb	-13.1813
▁prep	-13.1814
well	-13.1817
▁Hik	-13.1826
▁linger	-13.1827
ayak	-13.1828
▁yar	-13.1831
ngry	-13.1832
xpress	-13.1833
geons	-13.1833
ford	-13.1833
▁illustrat	-13.1834
avern	-13.1834
▁syr	-13.1834
tual	-13.1834
ompetitive	-13.1834
uddhist	-13.1834
▁custod	-13.1834
ehicle	-13.1834
isitor	-13.1834
▁Gri	-13.1834
Donald	-13.1835
krain	-13.1835
▁engulf	-13.1835
fghan	-13.1835
lanta	-13.1835
▁Sleep	-13.1835
▁disgust	-13.1835
▁headbutt	-13.1835
▁introduc	-13.1835
▁request	-13.1835
▁tatoo	-13.1835
parag	-13.1835
proxim	-13.1835
recogni	-13.1835
udweiser	-13.1835
▁Argentin	-13.1835
▁Bienvenu	-13.1835
▁Bronco	-13.1835
▁Butcher	-13.1835
▁Mustang	-13.1835
▁Pakistan	-13.1835
▁Papa	-13.1835
▁Planet	-13.1835
▁Religio	-13.1835
▁Third	-13.1835
▁Welder	-13.1835
▁Wrestler	-13.1835
▁amputee	-13.1835
▁appreciat	-13.1835
▁apprehen	-13.1835
▁congratulat	-13.1835
▁decrepit	-13.1835
▁destroy	-13.1835
▁entangle	-13.1835
▁harpsichord	-13.1835
▁hawaii	-13.1835
▁headwrap	-13.1835
▁icicle	-13.1835
▁interlock	-13.1835
▁knob	-13.1835
▁meditate	-13.1835
▁nostril	-13.1835
▁opinion	-13.1835
▁promenade	-13.1835
▁protrud	-13.1835
▁pylon	-13.1835
▁recycl	-13.1835
▁remember	-13.1835
▁residence	-13.1835
▁retreiv	-13.1835
▁scuff	-13.1835
▁seashell	-13.1835
▁snowflake	-13.1835
▁sophisticated	-13.1835
▁stereo	-13.1835
▁stucco	-13.1835
▁suggest	-13.1835
▁surviv	-13.1835
▁uncomfortabl	-13.1835
▁urinal	-13.1835
▁GI	-13.1835
▁Mongol	-13.1835
▁Priest	-13.1835
▁Rabbi	-13.1835
▁Silhouette	-13.1835
▁adventurous	-13.1835
▁antenna	-13.1835
▁financial	-13.1835
▁inquisitive	-13.1835
▁lava	-13.1835
▁majestic	-13.1835
▁perpendicular	-13.1835
▁provocative	-13.1835
▁seamstress	-13.1835
▁secret	-13.1835
▁stubble	-13.1835
▁tranquil	-13.1835
▁whimsical	-13.1835
stitut	-13.1835
▁Tradition	-13.1835
▁parasurf	-13.1835
▁relationship	-13.1835
▁terrori	-13.1835
▁zig	-13.1835
▁Phil	-13.1835
▁President	-13.1835
▁Pupp	-13.1835
▁communicate	-13.1835
▁donate	-13.1835
▁tortilla	-13.1835
▁affix	-13.1835
▁president	-13.1835
▁shanty	-13.1835
▁easi	-13.1835
▁graveyard	-13.1835
▁Packer	-13.1835
▁murder	-13.1835
▁spindle	-13.1835
▁wiener	-13.1835
▁Harley	-13.1835
▁Smoke	-13.1835
▁peasant	-13.1835
▁reef	-13.1835
▁Oreo	-13.1835
▁abdom	-13.1835
▁prescription	-13.1835
▁thong	-13.1835
▁moderate	-13.1835
▁Twenty	-13.1835
▁memorab	-13.1835
▁conifer	-13.1835
▁contortionist	-13.1835
▁immigration	-13.1835
▁pork	-13.1835
ibbon	-13.1835
▁Diner	-13.1835
▁crucifix	-13.1835
▁Grill	-13.1835
▁north	-13.1835
▁strait	-13.1835
▁technic	-13.1835
▁Airline	-13.1835
▁demand	-13.1835
▁dwell	-13.1835
▁velo	-13.1835
▁whizz	-13.1835
HL	-13.1835
▁flare	-13.1835
▁overtake	-13.1835
▁pollut	-13.1835
▁medicine	-13.1835
▁oxford	-13.1835
▁actress	-13.1835
▁viking	-13.1835
▁Western	-13.1835
▁lump	-13.1835
▁Surround	-13.1835
▁Russel	-13.1835
▁sweatband	-13.1835
▁comedian	-13.1835
▁Camel	-13.1835
▁dream	-13.1835
odil	-13.1835
▁bask	-13.1835
▁precis	-13.1835
▁Cheer	-13.1835
▁Speed	-13.1835
eteran	-13.1835
▁Dodge	-13.1835
▁aviator	-13.1835
▁futon	-13.1835
▁myster	-13.1835
trium	-13.1835
▁Barber	-13.1835
▁Rail	-13.1835
▁centur	-13.1835
▁Tiger	-13.1835
ritish	-13.1836
▁Year	-13.1836
▁degree	-13.1836
▁curry	-13.1836
▁trike	-13.1836
aura	-13.1836
▁HEL	-13.1836
▁Marri	-13.1836
▁pillowcase	-13.1836
▁Hood	-13.1836
▁wrought	-13.1836
▁Block	-13.1836
▁Barbie	-13.1836
▁Peter	-13.1836
▁cannonball	-13.1836
▁Energ	-13.1836
▁hump	-13.1836
▁mono	-13.1836
rilli	-13.1836
▁urn	-13.1836
▁Chase	-13.1836
ghett	-13.1836
▁Merry	-13.1836
▁voic	-13.1837
▁showgirl	-13.1837
▁Confe	-13.1837
visibl	-13.1837
▁clog	-13.1837
▁Husk	-13.1837
▁soloist	-13.1837
▁captiv	-13.1837
▁wedg	-13.1837
▁Sav	-13.1837
▁whack	-13.1837
▁claim	-13.1837
▁promotion	-13.1837
▁dalmatian	-13.1838
▁Show	-13.1838
▁leak	-13.1838
▁Op	-13.1838
▁eject	-13.1838
▁swarm	-13.1838
▁mission	-13.1838
▁transformer	-13.1838
▁measurement	-13.1838
issan	-13.1838
metic	-13.1838
▁Broad	-13.1838
▁Pho	-13.1839
▁plot	-13.1839
▁bobb	-13.1839
▁invit	-13.1839
▁embl	-13.1839
▁kil	-13.1839
▁Interior	-13.1839
▁eyepiece	-13.1839
sentence	-13.184
arctic	-13.184
▁cough	-13.184
▁claus	-13.184
▁penalt	-13.1841
▁rodent	-13.1841
▁galo	-13.1842
▁chairlift	-13.1842
▁fern	-13.1842
▁Ori	-13.1843
▁Christ	-13.1843
▁pear	-13.1843
▁saver	-13.1844
▁panhandl	-13.1844
▁encircl	-13.1844
▁Dave	-13.1844
▁grove	-13.1845
▁contin	-13.1846
▁spur	-13.1846
▁fear	-13.1846
▁Odd	-13.1847
▁chant	-13.1847
▁Shoe	-13.1847
ncle	-13.1848
rapper	-13.1848
▁peri	-13.1849
▁mara	-13.1852
▁Hart	-13.1852
▁Pott	-13.1852
▁impro	-13.1854
▁bung	-13.1855
llin	-13.1855
▁Levi	-13.1856
ambo	-13.1858
▁issue	-13.1858
ext	-13.1861
▁stew	-13.1865
▁Gin	-13.1866
▁fumble	-13.1866
▁Colorfully	-13.1868
▁waterproof	-13.187
▁negotiate	-13.1871
uth	-13.1871
▁Inf	-13.1871
nyl	-13.1872
▁contemplative	-13.1872
▁Real	-13.1874
▁edit	-13.1875
▁dispenser	-13.1876
flow	-13.1882
IN	-13.1885
▁snooze	-13.1885
▁coz	-13.1896
▁Chev	-13.1897
potti	-13.1913
▁slipp	-13.1915
▁joint	-13.1926
▁comment	-13.193
▁urg	-13.1932
▁enti	-13.1935
▁receiver	-13.1937
bodie	-13.1946
▁ranger	-13.1955
acrosse	-13.196
▁rescuer	-13.1963
cove	-13.1966
▁explorer	-13.1967
▁recreate	-13.1971
tten	-13.1979
▁shove	-13.1981
▁worshiper	-13.1982
▁Ha	-13.1982
▁Lay	-13.1988
▁sent	-13.1988
▁nationalit	-13.199
rov	-13.199
▁Od	-13.2006
uction	-13.201
▁patti	-13.2014
CH	-13.2016
▁Oh	-13.2072
▁stranger	-13.2087
▁emotional	-13.2091
▁Hen	-13.2109
uff	-13.2126
ja	-13.2146
NC	-13.2167
▁Reg	-13.2173
rapher	-13.2175
llen	-13.2181
▁riser	-13.2206
▁Fast	-13.2206
upper	-13.2231
mura	-13.2243
pri	-13.2258
▁paddler	-13.2263
▁caress	-13.228
▁code	-13.2301
oles	-13.2329
▁Tab	-13.2334
west	-13.2342
▁clin	-13.239
iki	-13.2442
▁emit	-13.2468
▁gau	-13.2487
HS	-13.249
pul	-13.2519
ij	-13.2565
▁cl	-13.2598
mine	-13.2621
▁pucker	-13.2627
▁impressi	-13.2627
auti	-13.2649
IL	-13.2693
▁bomb	-13.2723
▁fli	-13.2726
▁Pr	-13.2735
▁circl	-13.2746
cou	-13.2803
▁Pit	-13.2807
▁Ben	-13.2833
▁Nan	-13.2864
▁Hung	-13.2892
▁postur	-13.2908
trooper	-13.3022
ith	-13.3037
▁travell	-13.3074
▁shoo	-13.3097
▁depo	-13.3155
pro	-13.3189
AT	-13.3211
caster	-13.3232
ternal	-13.3253
eva	-13.3281
rope	-13.3313
mount	-13.3328
opper	-13.3329
▁consol	-13.3371
▁crev	-13.3387
enz	-13.3408
▁hell	-13.3465
crobatic	-13.3509
irplane	-13.3517
▁spi	-13.3561
oker	-13.3569
▁hydra	-13.3586
anda	-13.366
▁discus	-13.369
lowers	-13.3698
▁spher	-13.3701
EE	-13.3716
rus	-13.372
rical	-13.3792
▁rob	-13.3814
▁tenta	-13.382
▁bubbl	-13.3863
▁pip	-13.3886
▁tru	-13.3888
▁pebbl	-13.3919
ria	-13.3944
dustri	-13.3953
uzz	-13.3992
hol	-13.4005
▁sna	-13.4016
morous	-13.4035
phones	-13.4055
▁snar	-13.4067
▁ruin	-13.4104
▁stag	-13.4111
▁observer	-13.4127
squi	-13.4127
▁Ru	-13.413
Cub	-13.414
▁shov	-13.4141
gauge	-13.4142
form	-13.4146
blade	-13.4147
East	-13.4147
quarter	-13.4147
vaulting	-13.4148
cream	-13.4148
occup	-13.4148
Work	-13.4149
clos	-13.4149
cultural	-13.4149
brand	-13.415
team	-13.415
historic	-13.415
step	-13.4151
science	-13.4151
wrapp	-13.4151
world	-13.4152
clock	-13.4152
patch	-13.4152
beam	-13.4152
force	-13.4153
cafe	-13.4153
shack	-13.4153
jack	-13.4153
clear	-13.4153
blond	-13.4153
glass	-13.4153
short	-13.4153
law	-13.4155
hills	-13.4155
pour	-13.4155
amuse	-13.4157
through	-13.4158
hockey	-13.4159
traffic	-13.4161
pile	-13.4164
vial	-13.4168
stain	-13.4181
ruins	-13.4183
won	-13.4195
▁messag	-13.4197
CL	-13.4202
▁futur	-13.4212
▁colli	-13.4213
corner	-13.4218
vice	-13.4219
gree	-13.4228
▁glob	-13.4238
▁orang	-13.4238
rucks	-13.4245
determinat	-13.4248
elief	-13.4248
▁experienc	-13.4254
▁bru	-13.4263
eams	-13.4264
▁confus	-13.4268
national	-13.4272
udge	-13.4278
▁THE	-13.4286
elmet	-13.4287
lley	-13.4288
▁specta	-13.4294
▁Photograph	-13.4299
▁librar	-13.4303
cation	-13.4306
▁Tea	-13.4313
▁cylind	-13.4315
▁archaeologi	-13.4317
ynchronize	-13.4317
RI	-13.4322
▁enthusias	-13.4323
culi	-13.4323
▁Chris	-13.4324
▁Office	-13.4324
▁turb	-13.4327
▁demoli	-13.4327
▁journ	-13.4327
▁angr	-13.4328
▁Teach	-13.4328
MT	-13.4328
▁crayo	-13.4328
ogether	-13.4328
PD	-13.4329
▁perfo	-13.433
rchitect	-13.4332
irthday	-13.4333
▁Cab	-13.4333
losi	-13.4333
▁compani	-13.4334
serie	-13.4334
fensive	-13.4334
agazine	-13.4334
▁refrigerat	-13.4334
▁reenact	-13.4334
▁danger	-13.4334
ystander	-13.4334
bbin	-13.4334
▁element	-13.4334
▁grandpa	-13.4334
iolinist	-13.4334
elicopter	-13.4334
▁Euro	-13.4335
▁brunet	-13.4335
▁Bask	-13.4335
ajor	-13.4335
▁Crouch	-13.4335
▁Fashion	-13.4335
▁disturb	-13.4335
▁punctur	-13.4335
▁deflect	-13.4335
▁luxur	-13.4335
▁psych	-13.4335
aguar	-13.4335
awasaki	-13.4335
lpha	-13.4335
▁Dolphin	-13.4335
▁Drummer	-13.4335
▁Earth	-13.4335
▁Gelat	-13.4335
▁Maker	-13.4335
▁Painter	-13.4335
▁Parkinson	-13.4335
▁Reporter	-13.4335
▁Sallie	-13.4335
▁Seahawks	-13.4335
▁Warrior	-13.4335
▁accomplish	-13.4335
▁aerobic	-13.4335
▁bicep	-13.4335
▁celebrit	-13.4335
▁clergy	-13.4335
▁compress	-13.4335
▁coordinat	-13.4335
▁cymbal	-13.4335
▁detain	-13.4335
▁disguise	-13.4335
▁email	-13.4335
▁faith	-13.4335
▁fundrais	-13.4335
▁imagina	-13.4335
▁inscription	-13.4335
▁jaywalk	-13.4335
▁kebab	-13.4335
▁militant	-13.4335
▁pheasant	-13.4335
▁practitioner	-13.4335
▁pyrotechnic	-13.4335
▁quantit	-13.4335
▁recoil	-13.4335
▁registra	-13.4335
▁remind	-13.4335
▁satisf	-13.4335
▁schedule	-13.4335
▁script	-13.4335
▁segment	-13.4335
▁skatepark	-13.4335
▁submarine	-13.4335
▁trampled	-13.4335
▁trowel	-13.4335
▁violently	-13.4335
▁Civil	-13.4335
▁Librar	-13.4335
▁accelerat	-13.4335
▁cabbage	-13.4335
▁interpret	-13.4335
▁lavish	-13.4335
▁reluctant	-13.4335
▁significant	-13.4335
▁simulat	-13.4335
▁sneez	-13.4335
▁ventilat	-13.4335
▁videographer	-13.4335
▁visual	-13.4335
ouleur	-13.4335
▁Crafts	-13.4335
▁Smart	-13.4335
▁cautious	-13.4335
▁chev	-13.4335
▁debat	-13.4335
▁depth	-13.4335
▁Lounge	-13.4335
▁genie	-13.4335
▁instrumentalist	-13.4335
▁Maritim	-13.4335
▁charades	-13.4335
▁retire	-13.4335
cumbe	-13.4335
iloso	-13.4335
rumpled	-13.4335
▁Swan	-13.4335
▁orthodo	-13.4335
▁Machin	-13.4335
▁adopt	-13.4335
▁frizzy	-13.4335
▁concoct	-13.4335
▁Scen	-13.4335
▁Audience	-13.4335
▁lumberjack	-13.4335
▁magnet	-13.4335
▁mussel	-13.4335
▁revers	-13.4335
▁Demonstrator	-13.4335
▁auburn	-13.4335
▁dazzl	-13.4335
▁representative	-13.4335
▁Bubble	-13.4335
▁Schoolgirl	-13.4335
▁Build	-13.4335
▁Grocer	-13.4335
▁gull	-13.4335
▁explode	-13.4335
▁burka	-13.4335
▁manikin	-13.4335
▁pledg	-13.4335
▁bulk	-13.4335
▁weightlift	-13.4335
▁identifi	-13.4335
▁clump	-13.4335
▁resist	-13.4335
▁vineyard	-13.4335
▁newscaster	-13.4335
▁gnarl	-13.4335
inema	-13.4335
▁chuck	-13.4335
▁yolk	-13.4335
▁Reflection	-13.4335
▁reform	-13.4335
▁eviden	-13.4335
▁burrow	-13.4335
▁spice	-13.4335
▁Pipe	-13.4335
▁diagnos	-13.4335
▁oak	-13.4335
▁drug	-13.4335
▁Orchestra	-13.4335
▁Sailor	-13.4335
▁Wheel	-13.4335
▁juke	-13.4335
▁german	-13.4335
armac	-13.4335
▁verbal	-13.4335
▁sarong	-13.4335
▁Model	-13.4335
▁lama	-13.4335
▁authority	-13.4335
▁Bunch	-13.4336
▁executive	-13.4336
▁Cheese	-13.4336
araoke	-13.4336
▁revel	-13.4336
▁usual	-13.4336
▁Cind	-13.4336
hurch	-13.4336
▁fanned	-13.4336
▁flurr	-13.4336
▁unitard	-13.4336
▁erupt	-13.4336
sault	-13.4336
▁Front	-13.4336
▁Head	-13.4336
▁meditation	-13.4336
ptical	-13.4336
▁Down	-13.4336
▁silent	-13.4336
▁illustration	-13.4336
▁advert	-13.4336
▁Royal	-13.4336
▁reign	-13.4336
▁declare	-13.4336
beat	-13.4336
▁Classic	-13.4336
▁fuel	-13.4336
blading	-13.4336
onnie	-13.4336
▁canine	-13.4336
▁generation	-13.4336
▁renovation	-13.4336
▁cavern	-13.4336
▁deploy	-13.4337
▁Drag	-13.4337
▁mache	-13.4337
▁swerv	-13.4337
▁crag	-13.4337
▁polic	-13.4337
▁Pray	-13.4337
▁Wood	-13.4337
▁kor	-13.4337
▁tomb	-13.4337
▁bemuse	-13.4337
uvre	-13.4337
▁poof	-13.4338
▁nerd	-13.4338
▁Force	-13.4338
▁Indoor	-13.4338
▁hagg	-13.4338
▁submissi	-13.4338
▁porc	-13.4339
▁Pota	-13.4339
▁halo	-13.4339
▁lunchbox	-13.4339
▁menacing	-13.4339
▁portray	-13.4339
ctical	-13.4339
▁vol	-13.4339
▁Trash	-13.4339
unch	-13.4339
▁peep	-13.434
▁armband	-13.434
▁refill	-13.434
▁terra	-13.434
▁rebuild	-13.434
obs	-13.434
njoy	-13.434
▁prow	-13.434
▁spotter	-13.434
▁Cath	-13.434
▁Shadow	-13.434
▁Sari	-13.4341
▁Post	-13.4341
▁sloth	-13.4341
▁breezeway	-13.4341
▁icon	-13.4341
▁screw	-13.4342
▁DI	-13.4342
▁Temp	-13.4342
cef	-13.4342
▁broadcast	-13.4343
fender	-13.4343
▁Mime	-13.4343
▁crust	-13.4343
▁gothic	-13.4343
▁nursery	-13.4344
▁cors	-13.4344
▁Lex	-13.4345
▁Open	-13.4345
▁enth	-13.4345
▁accordi	-13.4345
ayaker	-13.4345
▁Human	-13.4347
famili	-13.4347
▁energetic	-13.4348
acket	-13.4349
▁memo	-13.435
▁Sex	-13.435
▁cordon	-13.4351
gloss	-13.4351
▁Gun	-13.4352
acle	-13.4352
Read	-13.4353
▁brain	-13.4353
▁actual	-13.4354
▁Main	-13.4354
▁Martin	-13.4354
▁barge	-13.4355
strate	-13.4355
luck	-13.4357
▁inhal	-13.4358
pling	-13.4358
▁Spar	-13.436
▁coup	-13.4361
▁Wave	-13.4361
▁clu	-13.4361
▁sour	-13.4361
▁clamp	-13.4364
▁calve	-13.4365
▁flamingo	-13.4369
▁Tye	-13.437
petition	-13.4374
▁micro	-13.4376
▁Dar	-13.4378
▁busker	-13.4383
▁Foo	-13.4388
▁Hut	-13.4389
HER	-13.439
▁conclu	-13.4394
▁droo	-13.4395
▁opp	-13.4398
▁Lite	-13.4398
▁Cold	-13.44
OME	-13.4402
▁SL	-13.4402
bert	-13.4409
▁cost	-13.4417
▁Bass	-13.442
occe	-13.4424
▁Rub	-13.443
ologist	-13.4431
▁Sand	-13.4433
▁Dor	-13.4438
Ball	-13.4438
▁provider	-13.4439
▁Pala	-13.4455
▁grou	-13.4479
▁Hav	-13.4487
▁Balle	-13.4498
▁papa	-13.45
berg	-13.4506
omeran	-13.4506
▁gasp	-13.4521
ogger	-13.4543
actor	-13.4568
▁snorkeler	-13.4595
▁Driv	-13.46
ME	-13.4601
▁Bri	-13.4614
▁Mel	-13.4658
▁sailboard	-13.4661
large	-13.4715
▁bridle	-13.4734
olaroid	-13.4751
▁mart	-13.4767
lease	-13.4771
▁Danc	-13.4772
cotta	-13.4788
▁vote	-13.4797
idewalk	-13.4834
▁sham	-13.4838
comb	-13.4845
enya	-13.4846
touch	-13.4901
▁Ship	-13.4906
▁swank	-13.4924
formally	-13.4934
rick	-13.4982
urq	-13.5008
▁aviat	-13.5011
oid	-13.5074
▁rescu	-13.5088
▁gui	-13.5094
▁hobb	-13.5101
base	-13.5126
kah	-13.5156
▁cradl	-13.5162
icious	-13.5201
▁youthful	-13.5235
erra	-13.5454
lowing	-13.546
▁excavati	-13.5532
Bot	-13.562
▁snowmobil	-13.565
▁deco	-13.5671
▁steadi	-13.5821
▁bandag	-13.5856
IF	-13.592
▁stake	-13.592
AD	-13.5954
belief	-13.6026
▁Watch	-13.6054
▁quir	-13.6144
ount	-13.6161
▁colo	-13.6187
urp	-13.6194
▁HO	-13.6261
hile	-13.6269
ltitude	-13.6308
▁neur	-13.6531
abilit	-13.6555
cab	-13.659
▁concentr	-13.6694
▁Shep	-13.6698
allard	-13.6705
▁expo	-13.6769
▁hurdl	-13.6824
irport	-13.6852
builder	-13.7011
▁poo	-13.7012
uni	-13.7043
specifi	-13.7063
orate	-13.7108
handle	-13.7143
cob	-13.719
▁purs	-13.7206
▁japan	-13.7269
punk	-13.7347
▁Will	-13.7372
▁explo	-13.7382
▁condom	-13.7386
▁spoke	-13.7386
friend	-13.7392
▁belonging	-13.7403
▁admi	-13.7416
ustere	-13.7419
▁recreat	-13.7428
urban	-13.7429
▁occur	-13.7434
divers	-13.7436
▁bundl	-13.7446
lime	-13.7463
easure	-13.7466
histle	-13.7467
regular	-13.747
skate	-13.7471
moving	-13.7473
ripple	-13.7474
talki	-13.7474
place	-13.7476
full	-13.7477
cords	-13.7478
came	-13.7478
hound	-13.748
▁strok	-13.748
frog	-13.7481
girl	-13.7481
CD	-13.7481
language	-13.7483
pick	-13.7484
pillar	-13.7485
service	-13.7486
terrain	-13.7486
focus	-13.7486
chase	-13.7486
polo	-13.7486
wire	-13.7486
scooter	-13.7487
mask	-13.7487
distance	-13.7487
appear	-13.7487
people	-13.7487
task	-13.7487
Asian	-13.7487
cloud	-13.7487
something	-13.7488
brick	-13.7488
gold	-13.7488
costume	-13.7488
bow	-13.7491
speak	-13.7492
garment	-13.7493
though	-13.7496
plaid	-13.7496
ltima	-13.7497
skater	-13.7501
court	-13.7501
▁welcom	-13.7506
▁wedd	-13.7511
itz	-13.7514
▁domin	-13.7523
▁latte	-13.7535
▁trombon	-13.7549
▁escap	-13.7553
▁antiqu	-13.7558
▁jewel	-13.7562
▁susp	-13.7567
▁hors	-13.7576
▁mosqu	-13.7584
ju	-13.7595
ppen	-13.7605
▁requir	-13.7609
otica	-13.7614
▁Protest	-13.7615
▁Polar	-13.7616
▁suppl	-13.762
▁Swimm	-13.7627
▁terri	-13.7638
ulation	-13.7641
raffic	-13.7651
▁Terri	-13.7656
uinn	-13.7658
▁sigh	-13.7658
PN	-13.7658
▁audi	-13.7658
AL	-13.7659
▁recei	-13.7659
▁curren	-13.7659
▁bulldoz	-13.7659
▁tradition	-13.766
ictoria	-13.7661
urkey	-13.7661
▁crus	-13.7661
ransport	-13.7661
▁africa	-13.7662
illage	-13.7662
▁Snowboard	-13.7663
eagulls	-13.7663
axophone	-13.7663
oftball	-13.7663
ketch	-13.7664
▁glamo	-13.7664
ilver	-13.7665
icyclist	-13.7665
uze	-13.7665
aurant	-13.7666
obili	-13.7666
xplorer	-13.7666
nthusiastic	-13.7666
lectronics	-13.7666
orgi	-13.7667
▁establish	-13.7667
asually	-13.7667
▁soci	-13.7667
nglish	-13.7667
▁Fish	-13.7667
▁affect	-13.7667
aramedic	-13.7667
atriotic	-13.7667
egret	-13.7668
nhappy	-13.7668
▁differ	-13.7668
▁crucifi	-13.7668
etriever	-13.7668
▁religio	-13.7668
mmigration	-13.7668
ertube	-13.7668
achshund	-13.7668
ifferent	-13.7668
tinguish	-13.7668
anitor	-13.7668
▁Sharp	-13.7668
bservers	-13.7668
▁backgrou	-13.7668
ualif	-13.7668
▁Gei	-13.7668
wilder	-13.7668
▁Stretch	-13.7668
▁gawk	-13.7668
▁mimick	-13.7668
▁Celebra	-13.7668
▁Exca	-13.7668
▁Gothic	-13.7668
▁caulk	-13.7668
▁manufactur	-13.7668
▁stiff	-13.7668
SHO	-13.7668
argarita	-13.7668
fortunate	-13.7668
gravity	-13.7668
ponent	-13.7668
sequence	-13.7668
▁Adolescent	-13.7668
▁Blacksmith	-13.7668
▁Carhart	-13.7668
▁Caution	-13.7668
▁Clydesdale	-13.7668
▁Cooper	-13.7668
▁Dinner	-13.7668
▁Donut	-13.7668
▁EAST	-13.7668
▁Eddie	-13.7668
▁Entertain	-13.7668
▁GRA	-13.7668
▁Ghost	-13.7668
▁Hawk	-13.7668
▁Hippie	-13.7668
▁Negro	-13.7668
▁Official	-13.7668
▁Premier	-13.7668
▁Republic	-13.7668
▁SWAT	-13.7668
▁Safe	-13.7668
▁Sausage	-13.7668
▁Scooby	-13.7668
▁Scra	-13.7668
"	-15.25
G	-15.2814
